{"[PAD]":0,"!":1,"\"":2,"#":3,"$":4,"%":5,"&":6,"'":7,"(":8,")":9,"*":10,"+":11,",":12,"-":13,".":14,"/":15,"0":16,"1":17,"2":18,"3":19,"4":20,"5":21,"6":22,"7":23,"8":24,"9":25,":":26,";":27,"<":28,"=":29,">":30,"?":31,"@":32,"A":33,"B":34,"C":35,"D":36,"E":37,"F":38,"G":39,"H":40,"I":41,"J":42,"K":43,"L":44,"M":45,"N":46,"O":47,"P":48,"Q":49,"R":50,"S":51,"T":52,"U":53,"V":54,"W":55,"X":56,"Y":57,"Z":58,"[":59,"\\":60,"]":61,"^":62,"_":63,"`":64,"a":65,"b":66,"c":67,"d":68,"e":69,"f":70,"g":71,"h":72,"i":73,"j":74,"k":75,"l":76,"m":77,"n":78,"o":79,"p":80,"q":81,"r":82,"s":83,"t":84,"u":85,"v":86,"w":87,"x":88,"y":89,"z":90,"{":91,"|":92,"}":93,"~":94,"¡":95,"¢":96,"£":97,"¤":98,"¥":99,"¦":100,"§":101,"¨":102,"©":103,"ª":104,"«":105,"¬":106,"®":107,"¯":108,"°":109,"±":110,"²":111,"³":112,"´":113,"µ":114,"¶":115,"·":116,"¸":117,"¹":118,"º":119,"»":120,"¼":121,"½":122,"¾":123,"¿":124,"À":125,"Á":126,"Â":127,"Ã":128,"Ä":129,"Å":130,"Æ":131,"Ç":132,"È":133,"É":134,"Ê":135,"Ë":136,"Ì":137,"Í":138,"Î":139,"Ï":140,"Ð":141,"Ñ":142,"Ò":143,"Ó":144,"Ô":145,"Õ":146,"Ö":147,"×":148,"Ø":149,"Ù":150,"Ú":151,"Û":152,"Ü":153,"Ý":154,"Þ":155,"ß":156,"à":157,"á":158,"â":159,"ã":160,"ä":161,"å":162,"æ":163,"ç":164,"è":165,"é":166,"ê":167,"ë":168,"ì":169,"í":170,"î":171,"ï":172,"ð":173,"ñ":174,"ò":175,"ó":176,"ô":177,"õ":178,"ö":179,"÷":180,"ø":181,"ù":182,"ú":183,"û":184,"ü":185,"ý":186,"þ":187,"ÿ":188,"Ā":189,"ā":190,"Ă":191,"ă":192,"Ą":193,"ą":194,"Ć":195,"ć":196,"Ĉ":197,"ĉ":198,"Ċ":199,"ċ":200,"Č":201,"č":202,"Ď":203,"ď":204,"Đ":205,"đ":206,"Ē":207,"ē":208,"Ĕ":209,"ĕ":210,"Ė":211,"ė":212,"Ę":213,"ę":214,"Ě":215,"ě":216,"Ĝ":217,"ĝ":218,"Ğ":219,"ğ":220,"Ġ":221,"ġ":222,"Ģ":223,"ģ":224,"Ĥ":225,"ĥ":226,"Ħ":227,"ħ":228,"Ĩ":229,"ĩ":230,"Ī":231,"ī":232,"Ĭ":233,"ĭ":234,"Į":235,"į":236,"İ":237,"ı":238,"Ĳ":239,"ĳ":240,"Ĵ":241,"ĵ":242,"Ķ":243,"ķ":244,"ĸ":245,"Ĺ":246,"ĺ":247,"Ļ":248,"ļ":249,"Ľ":250,"ľ":251,"Ŀ":252,"ŀ":253,"Ł":254,"ł":255,"Ń":256,"Ġì":257,"Ġë":258,"ìĿ":259,"čĊ":260,"ëĭ":261,"íķ":262,"ê°":263,"..":264,"ìĿ´":265,"ëĭ¤":266,"ëĬ":267,"ìĹ":268,"ê³":269,"ì§":270,"ëĬĶ":271,"ìŀ":272,"ë§":273,"íĻ":274,"ê³ł":275,"ìł":276,"íĻĶ":277,"ĺģ":278,"Ġê":279,"ëı":280,"ìķ":281,"ãħ":282,"ĺģíĻĶ":283,"ìļ":284,"ì§Ģ":285,"íķĺ":286,"ê°Ģ":287,"ëĤ":288,"ê²":289,"ìĦ":290,"Ġìŀ":291,"¬ë":292,"ê¸":293,"Ġìķ":294,"ëıĦ":295,"Ġí":296,"ëĵ":297,"ë¦":298,"ìĹĲ":299,"ĠìĿ":300,"íķľ":301,"ĠìĺģíĻĶ":302,"Īë":303,"³´":304,"ìĭ":305,"ĸ´":306,"ìĿĺ":307,"ê¸°":308,"ãħĭ":309,"ĠìĹ":310,"ìĿĢ":311,"ë¡":312,"ëį":313,"ìĿĦ":314,"Ŀ¼":315,"ëĤĺ":316,"ê²Į":317,"ĠìĿ´":318,"ìĦľ":319,"Ġë§":320,"ìļĶ":321,"ìĬ":322,"ìĸ´":323,"ë¡ľ":324,"ĠëĤ":325,"ë§Į":326,"ëĿ¼":327,"ë¦¬":328,"Ġìł":329,"·¸":330,"ëĭĪ":331,"ëĵ¤":332,"ë¥":333,"ê±":334,"ìķĦ":335,"ëł":336,"...":337,"ë©":338,"¬´":339,"ìľ":340,"Ġê°":341,"ìĿ¸":342,"ãħĭãħĭ":343,"¯¸":344,"ëį°":345,"Ġì§":346,"ëĦ":347,"ĠìķĦ":348,"ĮĢ":349,"ëŁ":350,"ìĺ":351,"êµ":352,"íķ´":353,"Ġë³´":354,"ë©´":355,"ìĥ":356,"ìĺģíĻĶ":357,"Ġìĭ":358,"Ġê·¸":359,"ê¹":360,"ë°":361,"Ġëª":362,"ìłĲ":363,"ìĭľ":364,"Īĺ":365,"Ġëĭ":366,"ë³´":367,"ìĿĮ":368,"ìĬ¤":369,"£¼":370,"ëŀ":371,"Ġë°":372,"ìľ¼":373,"ëĦ¤":374,"Ġìŀ¬ë":375,"ë¥¼":376,"ë§Ĳ":377,"Ġì¢":378,"!!":379,"ë¶":380,"ì¤":381,"ĠìĤ":382,"ê±°":383,"ìĤ":384,"ìĻ":385,"ëĮĢ":386,"ëĭĪëĭ¤":387,"Īë¬´":388,"ìŀĲ":389,"ëĬĶëį°":390,"ìĽ":391,"Ġë³":392,"ìłķ":393,"ĠëĦ":394,"ë§Ī":395,"ê¹Į":396,"ì²":397,"ìĹĨ":398,"ĠìĹĨ":399,"ìĹĪ":400,"ĠëĤĺ":401,"Ġíķĺ":402,"ìļ°":403,"Ġë´":404,"ì¹":405,"ìķ¼":406,"Ġì¢ĭ":407,"ì£¼":408,"ì§Ħ":409,"Ġëĭ¤":410,"ìĪĺ":411,"íĸ":412,"ë³":413,"ë²":414,"ìłģ":415,"µľ":416,"ìŀ¥":417,"ìŀĪ":418,"ìŀĳ":419,"ìłĦ":420,"ìĥģ":421,"ëª":422,"....":423,"Ġìĥ":424,"Ġìłķ":425,"ì§ľ":426,"ìĨ":427,"°Į":428,"ìľ¼ë¡ľ":429,"Ġê²":430,"ĠìŀĪ":431,"ì§Ģë§Į":432,"íĺ":433,"ê°Ħ":434,"ĠìĹ°":435,"íķĺê³ł":436,"ĠìĻ":437,"¬ëŀ":438,"ê³¼":439,"Ĳëı":440,"ìĺ¤":441,"ĠìĬ":442,"Ġëĵ":443,"ëĤ´":444,"Ġê¸":445,"ıī":446,"ãħł":447,"ĠëĦĪë¬´":448,"ëŁ°":449,"ëħ":450,"Ġìĸ´":451,"Ġìĺ":452,"Ġë§Į":453,"íĥ":454,"Ġìŀ¬ë¯¸":455,"Ġì§Ģ":456,"¹Ħ":457,"ëĶ":458,"ê·¸":459,"ì°":460,"íŀ":461,"ëĥ":462,"ìĹĲìĦľ":463,"ĠëĤ´":464,"ëĦ¤ìļĶ":465,"ê±´":466,"Ĳĺ":467,"Ġíķľ":468,"ëĵľ":469,"Ġìĭľ":470,"íĨ":471,"Ġë¶":472,"ìķĺ":473,"íķł":474,"ĠìĦ":475,"ķĮ":476,"ì¡":477,"ìŀ¬ë":478,"ìĹ°":479,"Ġì§Ħ":480,"Ġë´¤":481,"ë£":482,"Ġê°Ģ":483,"ìļ´":484,"ĠìĬ¤":485,"ê³µ":486,"Ġìµľ":487,"ë´":488,"ìĦ±":489,"ìĻĢ":490,"Ġëı":491,"ë¯¸":492,"Ġìļ":493,"ìĹ¬":494,"ê°ģ":495,"ìĬµ":496,"Ġì°":497,"ê²ĥ":498,"\"\"":499,"íŀĪ":500,"Ġëį":501,"ìłľ":502,"Ġ1":503,"íĶ":504,"ì¹ĺ":505,"ì¶":506,"ìĸ":507,"ìļ©":508,"Ġê¸°":509,"íķĺëĬĶ":510,"ĠëĮĢ":511,"ĠìĨ":512,"ë¶Ģ":513,"ëł¤":514,"ìĿ¼":515,"ĠìĹ°ê¸°":516,"íĨł":517,"ëŀĺ":518,"Ġê°Ĳëı":519,"íĸĪ":520,"íĮ":521,"Ġìŀ¬ë°Į":522,"ıīìłĲ":523,"ë¬":524,"ĠìĪĺ":525,"Ħ°":526,"êµ¬":527,"Ġëª¨":528,"ì¦":529,"íķ¨":530,"ë£¨":531,"ìĤ¬":532,"ìĸ´ìļĶ":533,"Ġìłķë§Ĳ":534,"ĠìłĦ":535,"ĠìĤ¬ëŀ":536,"Ŀê°ģ":537,"êµŃ":538,"Ġìľ":539,"ãħİ":540,"Ġì¤":541,"ìĭł":542,"íĦ°":543,"Ġìŀĺ":544,"ì¢":545,"ì¤ĳ":546,"ĠìķĬ":547,"Ġë¬´":548,"ë¶Ħ":549,"íĬ":550,"ëŁ¬":551,"ìħ":552,"ãħĭãħĭãħĭãħĭ":553,"ê²ł":554,"ìĬµëĭĪëĭ¤":555,"ìĿ´ëĭ¤":556,"íİ":557,"ĠëįĶ":558,"ìĦ¸":559,"ĠìķĪ":560,"íķĺëĭ¤":561,"ĠëĬ":562,"Ġì¡":563,"ëłĪ":564,"Ġê±":565,"Ġì£¼":566,"ê°Ļ":567,"°ìļ°":568,"ë¥´":569,"ĵ°":570,"ëķĮ":571,"ĠìĽ":572,"ìĨĮ":573,"ê°ľ":574,"~~":575,"ĠëŃ":576,"ìŀĦ":577,"íĨłë¦¬":578,"Ġëĵľ":579,"ĠìĥĿê°ģ":580,"ìĥĿ":581,"Ġì§Ħì§ľ":582,"ãħ¡":583,"ê°Ĳ":584,"Ġë§Ī":585,"ëł¥":586,"ëĵł":587,"ëįĺ":588,"ĠìĿ¸":589,"ìŀħ":590,"ìĭ¤":591,"Ġê°Ļ":592,"Ġìµľê³ł":593,"íģ":594,"Ġì²":595,"Ġë§Ĳ":596,"Ġêµ":597,"Ġëª»":598,"ê·":599,"ëĤľ":600,"ëĵ¯":601,"ëĿ¼ë§Ī":602,"ëĵ¤ìĿ´":603,"ë¬´":604,"Ġê°ľ":605,"ĠìĹ¬":606,"ëħĦ":607,"ìķħ":608,"íĴ":609,"ãħłãħł":610,"ĠìŀĲ":611,"ëĶĶ":612,"Ġìłľ":613,"ĠëĬĲ":614,"Ġëģ":615,"ê¹Įì§Ģ":616,"ê¸Ī":617,"ë¦Ħ":618,"ĠìĻľ":619,"ëĥ¥":620,"íİ¸":621,"Ġê´":622,"íĥĢ":623,"íķĺê²Į":624,"ë¹Ħ":625,"ë³¸":626,"Ġë³¸":627,"Ġì¶":628,"ëłĩ":629,"ĳĲ":630,"ìĺĢ":631,"Ġìĸ":632,"ĠìķĮ":633,"ĠëĤ¨":634,"íı":635,"Ġíĺ":636,"ìĿ´ëĿ¼":637,"íĬ¸":638,"Ġê²ĥ":639,"ì¤Ģ":640,"Ġìĺ¤":641,"ĠíıīìłĲ":642,"ë³´ëĭ¤":643,"ìĹĪëĭ¤":644,"Ġê·":645,"½Ķ":646,"Ġë³´ê³ł":647,"ìħĺ":648,"Ġë³¼":649,"ĠìĿ´ëŁ°":650,"ìľł":651,"ê±¸":652,";;":653,"ìłĢ":654,"ìłķë§Ĳ":655,"ĠìĨĮ":656,"ë§ī":657,"Ġë©":658,"ëįĶ":659,"ê´":660,"??":661,"ì²´":662,"ë¹":663,"ì§Ħì§ľ":664,"ìĶ":665,"Ġë¹":666,"Ġë¹Ħ":667,"ëģ":668,"ĽĦ":669,"ìĭ¬":670,"Ġê°ĲëıĻ":671,"Ġê¹":672,"Ġë§İ":673,"ĠíĿ":674,"ĠìķĦëĭ":675,"ĠìĬ¤íĨłë¦¬":676,"ìŀ¬ë¯¸":677,"ëłĪê¸°":678,"íĴĪ":679,"íķ´ìĦľ":680,"ìķĪ":681,"ìĽĲ":682,"Ġë¯¸":683,"ĠëĶ":684,"ĠëĪ":685,"Ġìŀĳ":686,"ë²Ħ":687,"ĵ°ëłĪê¸°":688,"ìĪ":689,"Ġìľł":690,"Ġìŀ¥":691,"Ĳľ":692,"¡ľ":693,"Ġë²":694,"ëĦĪë¬´":695,"ĠìĤ¬ëŀĮ":696,"ëĥĲ":697,"Ġë¶Ģ":698,"ë©´ìĦľ":699,"Ġë§Įëĵ¤":700,"ĠìĿ¼":701,"Ġíĸ":702,"ë¨":703,"ëĭ¨":704,"ëĲĺ":705,"ì¢ĭ":706,"Ġãħĭãħĭ":707,"ìµľ":708,"ê³Ħ":709,"Īëį":710,"Ġì§Ģë£¨":711,"ë¬¸":712,"ë²Ī":713,"ĠëĵľëĿ¼ë§Ī":714,"ĠìķĪë":715,"ìłģìĿ¸":716,"ĠìĤ¬":717,"Ġì¤ĳ":718,"ëªħ":719,"ìĦł":720,"íĭ":721,"Ġê³µ":722,"ëłĩê²Į":723,"ëĭ¤ëĬĶ":724,"Ħë¡ľ":725,"ĠëģĿ":726,"ìĺģ":727,"ãħľ":728,"Ġë°°ìļ°":729,"ì§ģ":730,"ìĸµ":731,"ì¶ľ":732,"ëĭ¹":733,"ĠëĤ´ìļ©":734,"ë¦¬ê³ł":735,"ë¦°":736,"ë§Ŀ":737,"ë¦¬ë":738,"ìĽĮ":739,"£½":740,"ëŀĳ":741,"ĠëĲĺ":742,"Ġì¡°":743,"íļ":744,"ëıĻ":745,"ë¯":746,"Ġìļ°":747,"Ġì¢Ģ":748,"Ġíķ":749,"Ġíķ´":750,",,":751,"ĦìłĦ":752,"Ġ10":753,"ê¹Ŀ":754,"ì¡°":755,"^^":756,"ĠëŃĲ":757,"ĠëĨ":758,"ë³´ê³ł":759,"Ġìķł":760,"íĤ":761,"ãħİãħİ":762,"ë´¤":763,"ìŀ¬":764,"¡ìħĺ":765,"ì§Ģë§ī":766,"Ġê°Ĳëıħ":767,"Ġ2":768,"ê°Ĳëı":769,"ë¬¼":770,"Ġìŀ¬ë¯¸ìŀĪ":771,"ë¥¸":772,"Ġë´Ĳ":773,"Ġìĭ¶":774,"Ġê°Ĳ":775,"ëĨ":776,"ìľ¼ë©´":777,"ĠìĺģíĻĶë¥¼":778,"ìŀ¬ë°Į":779,"Ġì¹":780,"ĠíĮ":781,"ìĤ¬ëŀ":782,"ê¸´":783,"ëª¨":784,"ë¦´":785,"ìķł":786,"ĠìĤ¬ëŀĳ":787,"ĠìłĢ":788,"íĺĦ":789,"ìĨį":790,"ĠíĹ":791,"íĿ":792,"íı¬":793,"Ġëªħ":794,"Ġê³ł":795,"Ġëĺ":796,"Ġë°ĺ":797,"Ġì¢ĭìķĦ":798,"Īëįĺ":799,"ĠìĽĥ":800,"ëĳĲ":801,"Ġê±°":802,"Ġìŀ¬ë¯¸ìĹĨ":803,"Ġëħ":804,"ìĹŃ":805,"Ġì°¸":806,"ì¤Ħ":807,"ë°Ķ":808,"Ġë³´ëĬĶ":809,"ì²ĺ":810,"Ġê·¸ëĥ¥":811,"Ġë´¤ëĬĶëį°":812,"¬¼":813,"íķĺì§Ģ":814,"ĠìĹŃ":815,"ì¡±":816,"íħ":817,"Ġë°Ķ":818,"Ġìĺģ":819,"Ġìĥģ":820,"ëĸ":821,"ìľĦ":822,"ëĵ¤ìĿĺ":823,"ê»":824,"Ġìĵ°ëłĪê¸°":825,"ë°ķ":826,"ĠìĹĨëĬĶ":827,"íĶĦ":828,"ãĦ":829,"OO":830,"ĠìŀĳíĴĪ":831,"ëĤ¨":832,"Ġëĭ¤ìĭľ":833,"¥¼":834,"ëĭĺ":835,"ëħ¸":836,"ìĿ¸ê³µ":837,"ì§ĢëĬĶ":838,"Ġë§¤":839,"ëŁ½":840,"ìŀħëĭĪëĭ¤":841,"íĹ":842,"ìļ¸":843,"ì²Ń":844,"Ġê²°":845,"ìĭĿ":846,"ĠìĺģíĻĶëĬĶ":847,"ìĭ¶":848,"íıīìłĲ":849,"ĠëĬĲëĤ":850,"Ġìĭ¤":851,"ë§Īë":852,"ëŃ":853,"Ħ¤":854,"ë°ĺ":855,"!!!":856,"¬ë¦":857,"ìŀ¼":858,"ĠíĻ":859,"ê²½":860,"ĠìŀĪëĬĶ":861,"ì§Ī":862,"Ġì¢ĭìĿĢ":863,"©ëĭĪëĭ¤":864,"Ġì¢ĭìķĺ":865,"ê´Ģ":866,"ëĭ¤ê³ł":867,"ìī":868,"Ġìĭľê°Ħ":869,"ê¸¸":870,"ëĿ¼ê³ł":871,"ìĹĶ":872,"ĠìĤ´":873,"êµ°":874,"Ġìĭł":875,"ìĹ°ê¸°":876,"ìĦ¤":877,"ìķ¼ê¸°":878,"ĠìĺģíĻĶê°Ģ":879,"ëĭ¤ê°Ģ":880,"ë°ľ":881,"ĠíķĺëĤĺ":882,"ìĬ¨":883,"ºĲ":884,"íļĮ":885,"ìĹĨëĬĶ":886,"Ġíĥ":887,"ê°ĻìĿĢ":888,"Ġì´":889,"ìĸ´ìĦľ":890,"ĠëķĮ":891,"ì¶Ķ":892,"Ġë¨":893,"âĻ":894,"ëŀĢ":895,"ë´Ĳ":896,"ĳľ":897,"ĠìĹĨëĭ¤":898,"Ġì²ĺ":899,"ìĦ¸ìļĶ":900,"ĠìĺĪ":901,"ìĿ´ëŁ°":902,"Ġíķł":903,"ìłģìĿ´":904,"ìµľê³ł":905,"ìģ":906,"Ġëħ¸":907,"ĠíķĺëĬĶ":908,"ìĿ¸ëį°":909,"ëĲľ":910,"ĠëĤĺìĺ¤":911,"ëĭµ":912,"!!!!":913,"ĠëĦĺ":914,"ĠìķĦëĭĪ":915,"ì¦Ī":916,"Ġì£½":917,"ì¦Ŀ":918,"ĠíĶ":919,"ľì°":920,"ĠìĿĺ":921,"ìĹĲê²Į":922,"ìĺĪ":923,"Ġìķ¡ìħĺ":924,"ëĵ¤ìĿĢ":925,"ë¯¼":926,"ìĽĢ":927,"ãħ¡ãħ¡":928,"ì½Ķ":929,"Ġê¼":930,"Ġì½Ķ":931,"ìķĬ":932,"ê·¹":933,"Ġëª¨ë¥´":934,"Ġíı":935,"êµĲ":936,"Ġëª°":937,"ĠìķĦê¹Ŀ":938,"Ġì¶Ķ":939,"ìł¸":940,"ìłģìľ¼ë¡ľ":941,"ìĿ´ëĤĺ":942,"ìĺ¨":943,"ì¼":944,"ĠíĽĦ":945,"Ġ3":946,"Ġê¸°ëĮĢ":947,"ì²ľ":948,"ĮìĿ´":949,"ê²łëĭ¤":950,"íĮĲ":951,"Ġìµľê³łìĿĺ":952,"ìŀĪëĬĶ":953,"ê²¨":954,"Ġíŀ":955,"íķĻ":956,"»Ķ":957,"ë¶ĢíĦ°":958,"íĸī":959,"Ġëĸ":960,"ë©°":961,"ìĶ¨":962,"ì´":963,"ĠìĦ±":964,"ľì°®":965,"ëĮĢë¡ľ":966,"ĠìĿ´íķ´":967,"ĠëĺĲ":968,"ê¸ī":969,"íķľëĭ¤":970,"ì°¨":971,"ĪëĦ¤":972,"ëĤł":973,"ë¡Ŀ":974,"íĭ°":975,"íĸĪëĭ¤":976,"ëĬĲ":977,"ĠíĺĦ":978,"ìĭľê°Ħ":979,"íĽĦ":980,"ĠíĬ":981,"ĠìĹ°ì¶ľ":982,"ĠíĸĪ":983,"Ġëĵ¤":984,"Ġë§Īì§Ģë§ī":985,"Ġë¶Ī":986,"ë°°ìļ°":987,"ĠìĿ´ëłĩê²Į":988,"ìŀĶ":989,"Ġë¶Ħ":990,"Ġë©ĭ":991,"ì£":992,"Ġì²ĺìĿĮ":993,"Ġê´Ģ":994,"ĠìĽĲ":995,"Ġì§ľ":996,"ĠìĿ´ìķ¼ê¸°":997,"Ġê·¹":998,"ìłĪ":999,"ìłķëıĦ":1000,"íķ©ëĭĪëĭ¤":1001,"íĺ¸":1002,"íĶ¼":1003,"Ġê¸°ìĸµ":1004,"ĠìľĦ":1005,"ĠëĶ°":1006,"ì§ĢëıĦ":1007,"ĠíĽ":1008,"Ġíģ":1009,"ì£¼ëĬĶ":1010,"ê·¸ëĥ¥":1011,"ì¹ľ":1012,"ĠëıĦ":1013,"ĠìĿ´ê±´":1014,"ìĬ´":1015,"\"\"\"\"":1016,"ë§¨":1017,"ìĤ´":1018,"Ġìŀ¥ë©´":1019,"ë¸":1020,"âĻ¥":1021,"íĤ¤":1022,"ë¡ł":1023,"Ġìµľìķħ":1024,"Ġê°ķ":1025,"íĺĢ":1026,"Ġë§İìĿ´":1027,"ë¥ĺ":1028,"ë¬¸ìĹĲ":1029,"ĠìĦ¸":1030,"Ġíıī":1031,"ĠíķľêµŃ":1032,"Ġê·¸ë¦¬ê³ł":1033,"Ġë§Įëĵł":1034,"ëĤĺëĬĶ":1035,"Ġë¬":1036,"ãħĭãħĭãħĭ":1037,"Ġëªħìŀĳ":1038,"ĠìĪ":1039,"ĠëĳĲ":1040,"ĪëĿ¼":1041,"ĠíĻĶ":1042,"ĠëıĻ":1043,"ĠìĻĦìłĦ":1044,"ìĿ´ê±°":1045,"ë¦¬ëĬĶ":1046,"ë³¼":1047,"ëĿ¼ëĬĶ":1048,"ê¸Ģ":1049,"Ġìŀ¬ë°Įê²Į":1050,"ĠìķĦê¹Į":1051,"ëŁ¼":1052,"ë¨¸":1053,"ì¢Ģ":1054,"ëª»":1055,"ê°Ĳëıħ":1056,"ìĹĨëĭ¤":1057,"ĠëĤľ":1058,"Ġë³Ħë¡ľ":1059,"ĦìļĶ":1060,"Ġê·¸ëŁ°":1061,"ìķĺëĭ¤":1062,"ë°©":1063,"ĠìķĦìī":1064,"ĠìºĲ":1065,"ìķĮ":1066,"Ġë³´ìĹ¬":1067,"ë³´ëĬĶ":1068,"ĶìĿ´":1069,"00":1070,"ë§¤":1071,"Īë¬¼":1072,"ë³Ħ":1073,"Ġê´ľì°®":1074,"ĠìĿ´ê±°":1075,"ê²°":1076,"Ġë°°":1077,"ĠìķĦëĭĮ":1078,"¿Ĳ":1079,"ëł¸":1080,"ëĪ":1081,"Ġíİ":1082,"ê²ĥëıĦ":1083,"Ġë¡ľ":1084,"ëŃĲ":1085,"íķĺëĤĺ":1086,"ãħĭãħĭãħĭãħĭãħĭãħĭãħĭãħĭ":1087,"Ġë³Ħ":1088,"ĠëıĪ":1089,"ìĤ¬ëŀĮ":1090,"ë¦Ń":1091,"íĺķ":1092,"ì©":1093,"ë§ĮìĹĲ":1094,"ìĥī":1095,"ĠëĤ´ê°Ģ":1096,"ì³":1097,"ëģ¼":1098,"ë¨¹":1099,"ìĻľ":1100,"ìŀĺ":1101,"Ġìŀ¼":1102,"ãĦ·":1103,"ìĿĦê¹Į":1104,"ê°ĢëĬĶ":1105,"Ġê°ĻìĿĢ":1106,"ëħĢ":1107,"ìķĦìĦľ":1108,"Ġìĸ´ëĸ":1109,"ĠëŃĶ":1110,"ĠìĹĨê³ł":1111,"íħĮ":1112,"Ġë°ľ":1113,"ìĽł":1114,"ê·¼":1115,"Ġëĭ¹":1116,"°ĭ":1117,"ĠìķĦë¦Ħ":1118,"ìĻĶ":1119,"ê²©":1120,"ë³µ":1121,"Ġê·¸ëŀĺ":1122,"ìĹĨìĿ´":1123,"ê¹Ģ":1124,"ë¦¼":1125,"ìĪł":1126,"ëª©":1127,"........":1128,"íĽ":1129,"¬ë¦¬":1130,"ìĹĪëĬĶëį°":1131,"Ġì§Ģê¸Ī":1132,"Ġê¹Ģ":1133,"Ġìļ¸":1134,"ĠíĬ¹":1135,"ëĲ":1136,"ìĿ¸ê°Ģ":1137,"ìĬ¤íĨłë¦¬":1138,"ĠìĹ¬ìŀĲ":1139,"íķĺê¸°":1140,"Ġíĳľ":1141,"Ġê¼Ń":1142,"ì½":1143,"ĠëĬĲëĤĮ":1144,"ëľ":1145,"ìĽĥ":1146,"Ġë§ī":1147,"Ġíŀĺ":1148,"ëĭĪë":1149,"ëĤ´ìļ©":1150,"Ġìĭ¬":1151,"ãħī":1152,"ĠìķĦê¹Ŀëĭ¤":1153,"ë´ī":1154,"ì§±":1155,"ĠìĹĦ":1156,"ê¼":1157,"ìĹĩ":1158,"íķĺë©´":1159,"ãħľãħľ":1160,"ìĺĢëĭ¤":1161,"Ġë§ĪìĿĮ":1162,"Ġãħłãħł":1163,"ëĵľëĬĶ":1164,"ĠíĹĪ":1165,"Ġì¤Ħ":1166,"ìĺģíĻĶëĬĶ":1167,"\"\"\"":1168,"ëĭĪê¹Į":1169,"¬ëĿ¼":1170,"ëĵľëĿ¼ë§Ī":1171,"ìĪľ":1172,"ëĤ´ê°Ģ":1173,"Ġê·Ģ":1174,"ê°ķ":1175,"ì¹´":1176,"ĠíĨ":1177,"êµ¬ëĤĺ":1178,"ĠìĿĮ":1179,"íĮĮ":1180,"ë§ĲìĿ´":1181,"ì§ĳ":1182,"ìĺģíĻĶê°Ģ":1183,"ìĿ´ê²Į":1184,"ĠìĦ¤":1185,"Ġì£¼ìĿ¸ê³µ":1186,"Ġë§Ŀ":1187,"íķĺì§Ģë§Į":1188,"Ġë³´ë©´":1189,"ĠìĿ´ìĥģ":1190,"Ġêµ¬":1191,"ĠíıīìłĲìĿ´":1192,"ĠìĹĲ":1193,"Ġì°¨":1194,"ĠëĲ":1195,"ìķĦìļĶ":1196,"Ġëĭ¨":1197,"ĠìłĲ":1198,"Ġë³´ê¸°":1199,"ìĿ´ê³ł":1200,"ĠìĺģíĻĶëĭ¤":1201,"Ķì§ģ":1202,"ê°ĲëıĻ":1203,"ìĺģíĻĶë¥¼":1204,"ëĵ±":1205,"ë¹ł":1206,"ë¯¸ëĶĶ":1207,"ĠìĬ¬":1208,"Ġì¡¸":1209,"íģ¬":1210,"ì»":1211,"íĥľ":1212,"Ġë¯":1213,"ĠëĤ®":1214,"ìĿ¸ì§Ģ":1215,"Ġë§¤ëł¥":1216,"ìĬ¤ëŁ½":1217,"ĠìļĶ":1218,"10":1219,"Ġë§ŀ":1220,"ĠíĺĦìĭ¤":1221,"Ġê°Ģìŀ¥":1222,"ëĬĶëĭ¤":1223,"ëĬĶì§Ģ":1224,"Ġê±¸":1225,"ĠëĨĴ":1226,"ìķĪë":1227,"ì°¸":1228,"į¼":1229,"ĠìĨį":1230,"íıī":1231,"ìĥĿê°ģ":1232,"ì¼Ģ":1233,"ìĸ¸":1234,"ĠìķĦìĿ´":1235,"ìĸĳ":1236,"Ġëª°ìŀħ":1237,"ìĿ´ê±´":1238,"ëĶ°":1239,"Ġ.":1240,"Ġë¹ł":1241,"Ġë³¼ë§Į":1242,"ìģĺ":1243,"ì§Ģë£¨":1244,"ë¦ŃíĦ°":1245,"ĠìŀĪëĭ¤":1246,"ĠìłķëıĦ":1247,"ĠíĿ¥":1248,"Ġì§ľì¦Ŀ":1249,"íĮħ":1250,"Ġë¦":1251,"Ġ..":1252,"Ġëĭ¤ë¥¸":1253,"ì£¼ìĿ¸ê³µ":1254,"Ġë¬´ìĬ¨":1255,"ĠìĦł":1256,"Ġìĸ¼":1257,"ìĻĦìłĦ":1258,"Ġë§Įëĵ¤ìĸ´":1259,"ĠìŀĶ":1260,"ìĶ¬":1261,"Ġê³Ħ":1262,"ìĹĪëįĺ":1263,"Ġãħĭãħĭãħĭ":1264,"ì£ł":1265,"ìĹĲëĬĶ":1266,"ĠëĮĢíķľ":1267,"¨ìĸ´":1268,"Ġìľłì¹ĺ":1269,"Ġì¡´":1270,"ĠëĪĪë¬¼":1271,"ãħĩ":1272,"ë°°":1273,"ë°Ľ":1274,"ìĬ¤ëŁ¬":1275,"Ġì¶©":1276,"ì§Ģê³ł":1277,"ì§ĢìķĬ":1278,"ĠìĿ´ê²Į":1279,"ëĤĺìĦľ":1280,"ìĤ¬ë":1281,"Ġê³¼":1282,"ëĶ©":1283,"ĠìķĪëĲĺ":1284,"Ġìłģ":1285,"ĠìĹŃìĭľ":1286,"ĠíķĦìļĶ":1287,"ĠìĦľ":1288,"ëĬ¥":1289,"Ġãħİãħİ":1290,"ìĤ°":1291,"ĠìĥĿ":1292,"ì²ĺëŁ¼":1293,"Ġìļ°ë¦¬":1294,"Ġëĵ¯":1295,"ĠìłĦê°ľ":1296,"ì±":1297,"Ķì§ģíŀĪ":1298,"Ġë°ĺìłĦ":1299,"ëł¤ê³ł":1300,"ìĵ°ëłĪê¸°":1301,"ëĤĺìĺ¤":1302,"íĽĪ":1303,"Ġãħĭ":1304,"ĠëĪĦ":1305,"Ġê±´":1306,"íĪ":1307,"ë©Ķ":1308,"ì¡Į":1309,"ĠëĪĪ":1310,"Ġê³µíı¬":1311,"ĠëĤ¨ìŀĲ":1312,"ëŀľ":1313,"ĠìĬ¤ë¦´":1314,"¾Į":1315,"ì¦ĺ":1316,"Ġë°©":1317,"Ġì§ĳ":1318,"ìŀ¬ë¯¸ìŀĪ":1319,"ì³Ĳ":1320,"ë§ģ":1321,"ìĹĪìĿĮ":1322,"Ġë°ķ":1323,"ëĭ¤ëĭĪ":1324,"ĠìĿ¸ìĥĿ":1325,"Ġíı¬":1326,"êµ¬ë":1327,"êµ¿":1328,"ĸìĹĲ":1329,"ìŀ¡":1330,"Ġì¦":1331,"ĠëıĮ":1332,"íģ¼":1333,"Ġë»Ķ":1334,"íĶĪ":1335,"Ġì°¾":1336,"ĠìķĦë¬´":1337,"Ġíķĺì§Ģë§Į":1338,"ĠìĿ¼ë³¸":1339,"ĠìĪĺì¤Ģ":1340,"ëĬĶê±°":1341,"íĨµ":1342,"ê»ĺ":1343,"ë¶Ī":1344,"ë§Īì§Ģë§ī":1345,"ëĭ¤ìļ´":1346,"íĥĦ":1347,"ìĦĿ":1348,"Ġê¸´":1349,"Ġê°ĢìĬ´":1350,"Ġë§İìĿĢ":1351,"ìĤ¬ëŀĳ":1352,"ìŁ":1353,"Ġíķĺê³ł":1354,"¸ìłľ":1355,"ì¾Į":1356,"ëĭ¬":1357,"Ġãħ¡ãħ¡":1358,"Ġë°Ľ":1359,"ì¤ĳìĹĲ":1360,"ĠëģĿê¹Įì§Ģ":1361,"Ġìĸµ":1362,"Īë°":1363,"Ġì±":1364,"ëĵ¤ìĿĦ":1365,"ìĬ¤íĦ°":1366,"į¨":1367,"»ê²Į":1368,"ë¦½":1369,"Ġì§±":1370,"ëĤĺëĿ¼":1371,"ĠíĴ":1372,"ĠìķĦëĭĪëĿ¼":1373,"ĠìĿ¸ê°Ħ":1374,"Ġìĺģìĥģ":1375,"ĠOO":1376,"ìĸ¼":1377,"ìĿ´ì§Ģ":1378,"Ĵ¤":1379,"ê»´":1380,"ë¦¬ì¦Ī":1381,"ëįĶëĿ¼":1382,"Ġíĭ":1383,"Ġë´ĲëıĦ":1384,"íĿ¬":1385,"ĠëĲľ":1386,"ê¸°ëıĦ":1387,"Ġíĸī":1388,"º¼":1389,"ìĨ¡":1390,"íĸĪëįĺ":1391,"Ġëª¨ëĳĲ":1392,"Ġì°į":1393,"Ġê·¹ìŀ¥":1394,"íĻ©":1395,"ìŀ¥ë©´":1396,"ĠìĪľ":1397,"ì£½":1398,".....":1399,"Ġíİ¸":1400,"ĠíĶ¼":1401,"ìĹŃìĭľ":1402,"ëĲĺëĬĶ":1403,"Ġìļķ":1404,"ìłĳ":1405,"Ġì¶Ķì²ľ":1406,"ì£¼ê³ł":1407,"ł¤":1408,"Ġëª¨ëĵł":1409,"ëĦĺ":1410,"ê¶":1411,"ë§İ":1412,"Ġë´¤ëĭ¤":1413,"ìŁģ":1414,"ìĬ¤íĬ¸":1415,"Ġê·¼":1416,"ìĿĦëķĮ":1417,"Ġìŀ¬":1418,"ìķĦìĿ´":1419,"Ġê°Ļëĭ¤":1420,"ëĬĺ":1421,"ĠìĿĮìķħ":1422,"Ġìĭ¤ë§Ŀ":1423,"Ġë¨¸":1424,"ĪëĦ¤ìļĶ":1425,"ë§Įëĵ¤":1426,"ì¢ħ":1427,"ë¿Ĳ":1428,"Ġìĵ°":1429,"ë¦¬ê°Ģ":1430,"ìĹĲëıĦ":1431,"ĠìĻ¸":1432,"Ġëªĩ":1433,"ĪëĮĢ":1434,"ìĿ´ìĥģ":1435,"ìĿ´ëŀĳ":1436,"ê±´ì§Ģ":1437,"ëĨĵ":1438,"ìĹĨê³ł":1439,"ĠìĻĦ":1440,"ìĦŃ":1441,"Ġê²Į":1442,"Ġ'":1443,"ĠìķĦì§ģ":1444,"ëĺ":1445,"ĠíĤ":1446,"ìĪĺë¡Ŀ":1447,"ĠëĤĺìĺ¨":1448,"ĠìłĦíĺĢ":1449,"íĸĪëĬĶëį°":1450,"ĵ¤":1451,"ĠìĹ´":1452,"Ġë¨¹":1453,"ë´ĲëıĦ":1454,"ìĻ¸":1455,"Ġëª¨ìĬµ":1456,"ĠìĹ°ê¸°ëł¥":1457,"Ġíķľë²Ī":1458,"Ġìĸµì§Ģ":1459,"Ġì¤Ģ":1460,"ëľ»":1461,"Ġ4":1462,"íĬ¹":1463,"ìłĲëıĦ":1464,"Ġê²½":1465,"Ġ...":1466,"ĠìºĲë¦ŃíĦ°":1467,"ìŀ¥ê°Ĳ":1468,"ìĿ´ëĿ¼ëĬĶ":1469,"ëĵ¤ëıĦ":1470,"Ŀ½":1471,"ìĿ´ëĬĶ":1472,"ĠëĤ´ëĤ´":1473,"Ġê²°ë§Ĳ":1474,"íį¼":1475,"ëıħ":1476,"ê¸°ëĬĶ":1477,"ìĬ¹":1478,"Ġì¢ĭëĭ¤":1479,"ĠíĳľíĺĦ":1480,"ëĮĢì²´":1481,"Ġê³µê°Ĳ":1482,"Ġë³´ì§Ģ":1483,"ìĪĺê°Ģ":1484,"ĠëĨĢ":1485,"Ġì¹ĺ":1486,"ĠìķĬê³ł":1487,"Ġê³ĦìĨį":1488,"©ĶìĿ´":1489,"íĥĢìŀĦ":1490,"Ġê°Ħ":1491,"Ġíķ¨":1492,"ëıĪ":1493,"Ġì¶ľ":1494,"ë§ŀ":1495,"ê¸°ëĮĢ":1496,"ìĸ´ìķ¼":1497,"íķĺëĦ¤ìļĶ":1498,"ìĹĪìĸ´ìļĶ":1499,"Ġ8":1500,"ĠìĹ¬ìļ´":1501,"ëŁ¬ë":1502,"Ġì½Ķë¯¸ëĶĶ":1503,"ì¢ĭìĿĢ":1504,"íĳľ":1505,"ĠìĿ´ìłľ":1506,"Ġë§ĲìĿ´":1507,"ë¸Į":1508,"ľ´":1509,"ì¡´":1510,"Ġ9":1511,"íķĺëĦ¤":1512,"ĠìĺģíĻĶìĹĲ":1513,"ê¾":1514,"ëĤ´ëĤ´":1515,"ëķ":1516,"ëĿ¼ëıĦ":1517,"Ġëĵ±":1518,"íĻĺ":1519,"ìłĦìĹĲ":1520,"Ġë²Ħ":1521,"ĠëĮĢëĭ¨":1522,"ëķĮë¬¸ìĹĲ":1523,"Ġê¶":1524,"Ġì»":1525,"ĠìĹĦì²Ń":1526,"íĹĪ":1527,"ĠëĶ±":1528,"ĠëĤĺìĺ¤ëĬĶ":1529,"ê·¸ëŀĺ":1530,"Ġëĭµ":1531,"ëģĿ":1532,"Ġ5":1533,"ëĭ´":1534,"ë»Ķ":1535,"ê°Ŀ":1536,"Ġì¦Ĳ":1537,"ĠëĿ¼":1538,"ĠìķĦëĭĪëĭ¤":1539,"Ġëĸ¨ìĸ´":1540,"ĠêµĲ":1541,"ëĿ¼ë¦¬":1542,"ĠìĹī":1543,"ĠìķĬìĿĢ":1544,"~~~":1545,"ĠëĬĲê»´":1546,"ìĿ´ê°Ģ":1547,"ëŀĮ":1548,"ë²Ķ":1549,"íķľíħĮ":1550,"ê¸°ìĹĲ":1551,"Ġê°Ī":1552,"Ł¬":1553,"ìĸ´ëıĦ":1554,"Ġ7":1555,"ìķ¡ìħĺ":1556,"ë¦¬ìĺ¤":1557,"Ġê·¸ëłĩ":1558,"ìķ½":1559,"ë§Įíķľ":1560,"Ġë¯¿":1561,"ĠìĺģíĻĶìĿĺ":1562,"ì´Ī":1563,"ìłĲìĿ´":1564,"Ġìŀħ":1565,"Ġíĺ¸":1566,"ëĭ¤ë©´":1567,"íķ´ìļĶ":1568,"ĠìķĦìī½":1569,"íķĺë©´ìĦľ":1570,"Ġìķ½":1571,"ìĦ±ìĿ´":1572,"Ġë§ĮëĵľëĬĶ":1573,"ĠìĹ°ê¸°ê°Ģ":1574,"ëĿ¼ë§Īë":1575,"ìĵ°":1576,"ì²ĺìĿĮ":1577,"ë¥Ń":1578,"ìĿ´ëĿ¼ê³ł":1579,"ëĭ¤ìĭľ":1580,"ìĹĦ":1581,"ĠìŀĲì²´":1582,"ëĿ½":1583,"Ġê°ľë´ī":1584,"ãĦ·ãĦ·":1585,"ë³ĳ":1586,"íģĲ":1587,"ìŀĩ":1588,"íĸ¥":1589,"ĠìĨĲ":1590,"ìĹħ":1591,"Ġê¿":1592,"ĶĶ":1593,"łĪ":1594,"ë§Įíģ¼":1595,"ĠëŃĶê°Ģ":1596,"ìµľê³łìĿĺ":1597,"ĠíĮĮ":1598,"Ġìĸ´ëĸ»ê²Į":1599,"Ġëĭ´":1600,"Ġëĸł":1601,"Ġê¸°ë¶Ħ":1602,"ĠìĽĲìŀĳ":1603,"ĠíĿ¥ë¯¸":1604,"ĠìĻĢ":1605,"Ġë´Ĳìķ¼":1606,"ìľ¼ëĤĺ":1607,"ĠìķĦìī¬":1608,"ê°Ļëĭ¤":1609,"Ġìĭ¸":1610,"Ġì¹ľ":1611,"Įë¥Ń":1612,"ë´¤ëĬĶëį°":1613,"ìķĦëĭĪ":1614,"ëįĺëį°":1615,"Ġë¬¼":1616,"ìĿ¸ëĵ¯":1617,"Īë°ĺ":1618,"Īë¡ľ":1619,"ëĶ´":1620,"ëĤ¬":1621,"Ġìŀ¬ë¯¸ìŀĪê²Į":1622,"ĳĺ":1623,"ê¸°ê°Ģ":1624,"ĠëĤĺìĻĶ":1625,"ìŀĪëĭ¤":1626,"ëĬĶê²Į":1627,"íĺ¼":1628,"Ġãħĭãħĭãħĭãħĭ":1629,"ĠìµľìķħìĿĺ":1630,"Ġê°Ģì¡±":1631,"íķľêµŃ":1632,"ì°½":1633,"ìĿ´ëŀĢ":1634,"Ġê³":1635,"ĠìķĦì£¼":1636,"Ġë¶Ģì¡±":1637,"ìŀ¬ë°ĭ":1638,"Ġ-":1639,"Ġê·¸ëŀĺëıĦ":1640,"ĠìĹ°ê¸°ëıĦ":1641,"Ġìķħ":1642,"ĠìłľìĿ¼":1643,"Ġëıħ":1644,"ëħĦëĮĢ":1645,"ĠìķĦëĭĪê³ł":1646,"Ġë¸":1647,"ĠìĤ¶":1648,"ëĤľëĭ¤":1649,"ĠìķĦê¹Įìļ´":1650,"ìĹĨìĿĮ":1651,"ë³Ħë¡ľ":1652,"ìģľ":1653,"ìºĲ":1654,"ì§Ģê¸Ī":1655,"ĠìķĬëĬĶ":1656,"ĠëĮĢë°ķ":1657,"ë³´ë©´":1658,"ĠìłľëĮĢë¡ľ":1659,"Ġê·¼ëį°":1660,"ĠìĹ¬ë":1661,"ì¹ĺëĬĶ":1662,"©´":1663,"ê¿":1664,"ìį¨":1665,"ãħīãħī":1666,"ì§Ĳ":1667,"íķ´ëıĦ":1668,"Įį":1669,"Ġê½":1670,"Ġìŀł":1671,"Ġìĸ´ëĶĶ":1672,"Ġãħ":1673,"ĠìŀĬ":1674,"ĠíĥĢ":1675,"ĠìĶ":1676,"íĮ¨":1677,"ë¹Ļ":1678,"Ġë³´ëĭ¤":1679,"ĠëķĮë¬¸ìĹĲ":1680,"Ġìŀ¬ë°ĭ":1681,"ìĹ¬ìŀĲ":1682,"íıīìłĲìĿ´":1683,"ĠìĨĮìŀ¬":1684,"Ġëª©":1685,"êº¼":1686,"ìĹ¬ë":1687,"ìĺ¬":1688,"íķłìĪĺ":1689,"ĠìĿ´ìľł":1690,"íĪ¬":1691,"·¨":1692,"ìĨĶì§ģíŀĪ":1693,"Ġì¡°ê¸Ī":1694,"ì¸":1695,"ìĻķ":1696,"Ġë©Ķ":1697,"ĠëĤł":1698,"ìĹĲìļĶ":1699,"Ġì§Ī":1700,"íģ´":1701,"ëĤĺê³ł":1702,"ëĤĺëıĦ":1703,"ìµľìķħ":1704,"ĠìĺģíĻĶëĿ¼ê³ł":1705,"ë£¡":1706,"ĠëĤ´ìļ©ìĿ´":1707,"ĠëĲł":1708,"ìĭ¶ëĭ¤":1709,"ë²½":1710,"ê°Ī":1711,"ë¦¬ë¥¼":1712,"ì§Ħëĭ¤":1713,"~~~~":1714,"Ġìĭ¶ìĿĢ":1715,"ĵ¸":1716,"ìĿ´ëłĩê²Į":1717,"Ġë³´ê²Į":1718,"ìķĺëĬĶëį°":1719,"ë§Īëĭ¤":1720,"Ġì¹´":1721,"ëĤĺë¦¬ìĺ¤":1722,"¬ë§ģ":1723,"Ġë²ł":1724,"Ĳëĭ¤":1725,"ëĪĦ":1726,"ìĿ´ëĦ¤":1727,"ê¸°ë¥¼":1728,"ĠëĤĺìĻĢ":1729,"ìłģìĿ´ê³ł":1730,"Ġëª¨ë¥´ê²ł":1731,"íķĺëĬĶëį°":1732,"êµ°ìļĶ":1733,"ê¶Į":1734,"ëıĮ":1735,"ìĬ¤íĮħ":1736,"ĠëĬĲëģ¼":1737,"Ġë°°ìļ°ëĵ¤":1738,"Ġê¸´ìŀ¥ê°Ĳ":1739,"ê¾¸":1740,"ìĿ´ìķ¼":1741,"Ġìķŀ":1742,"ëĤĺìļĶ":1743,"ëŀľë§ĮìĹĲ":1744,"ĠìĤ´ìķĦ":1745,"Ġìŀ¬ë°Įëĭ¤":1746,"ê³¤":1747,"ìłĲìĿĢ":1748,"ĠìĺģíĻĶìŀħëĭĪëĭ¤":1749,"Ġíĺķ":1750,"ìĬ¤ëŁ¬ìļ´":1751,"ĠíĨµ":1752,"ê²ģ":1753,"ìĺģíĻĶìĿĺ":1754,"ë°ĸìĹĲ":1755,"ĠíĬ¹íŀĪ":1756,"ĠìĺģíĻĶë¡ľ":1757,"ë¸Ķ":1758,"êµ´":1759,"Ġìĭ¶ëĭ¤":1760,"ĠìĿĺë¯¸":1761,"ĠìĺģíĻĶìĺĢ":1762,"ì¤ĺ":1763,"ìĹĪìĬµëĭĪëĭ¤":1764,"Ġìłķìĭł":1765,"ìľ¼ë¡ľëıĦ":1766,"Ġêµ¿":1767,"Ġë§īìŀ¥":1768,"Ľ°":1769,"ìłķìĿ´":1770,"ĠëĮĢìĤ¬":1771,"Ġì£¼ëĬĶ":1772,"Ġìĭ«":1773,"Ġìĭľìŀĳ":1774,"ìļ±":1775,"ĠìłĪëĮĢ":1776,"Ġì¢ĭê³ł":1777,"Ġìłľìŀĳ":1778,"âĻ¥âĻ¥":1779,"ìķĦëĭ":1780,"ê·Ģ":1781,"ĠëĤ´ìļ©ëıĦ":1782,"Ġëħ¸ëŀĺ":1783,"Ġëį°":1784,"ĠíĽĮë¥Ń":1785,"Ġì²ľ":1786,"Ġìĸ´ì©":1787,"Ġìķ¼":1788,"Ġê°ģ":1789,"ëĦĪ":1790,"ĠëĴ¤":1791,"ĠëĲĺëĬĶ":1792,"ĠìķĦë¦Ħëĭ¤ìļ´":1793,"ëįķ":1794,"ëł¨":1795,"íķ´ìķ¼":1796,"ĠëĤ¨ëĬĶ":1797,"Ġ^^":1798,"ĠíĽ¨":1799,"ĠìĽĥê¸°":1800,"íĬ¼":1801,"ë¯¹":1802,"ì§Ģê°Ģ":1803,"ì§¸":1804,"Ġë¶Ģë¶Ħ":1805,"ëĨĪ":1806,"ëĭĪë©ĶìĿ´":1807,"Ġì¶ľìĹ°":1808,"ĠìĪĺìŀĳ":1809,"Ġì´Ī":1810,"ĥĲ":1811,"Ġë¦¬":1812,"ëĤ¸":1813,"ì¢ĭìķĦ":1814,"ìĿ¸ìłģìľ¼ë¡ľ":1815,"ĪëĶ":1816,"ì¤Ģëĭ¤":1817,"ëĭĪë©ĶìĿ´ìħĺ":1818,"íķ©":1819,"Ġëľ":1820,"ìĭ¶ìĿĢ":1821,"íľ´":1822,"ëĤĺê²Į":1823,"Ġë³µ":1824,"ĠìĹĨìĿĮ":1825,"???":1826,"ë§ĪëĤĺ":1827,"Ġì¤ĳê°Ħ":1828,"ìĿ¸ìĿ´":1829,"ë²ķ":1830,"Ġãħł":1831,"ìĬ¬":1832,"ĠëłĪ":1833,"Ģìĸ´":1834,"ìĽĲìŀĳ":1835,"íķľëį°":1836,"Ġë´¤ìĬµëĭĪëĭ¤":1837,"Ġë¹¼":1838,"ĠëĶ°ëľ»":1839,"ëŃĶ":1840,"ì¦Į":1841,";;;":1842,"_-":1843,"ì¯":1844,"Ġë´¤ëįĺ":1845,"Ġë¡ľë§¨":1846,"´Ĳ":1847,"ìĮį":1848,"ë°±":1849,"ëĵĿ":1850,"Ġìĭľë¦¬ì¦Ī":1851,"íļ¨":1852,"Ġ20":1853,"ì§ĵ":1854,"ìĿ¸ìĥĿ":1855,"ìĦ±ëıĦ":1856,"ê²ĥìĿ´":1857,"ì¹ĺê³ł":1858,"íħĲ":1859,"ìĥĪ":1860,"Ġë¬´ìĦľ":1861,"Ġì¢ĭìķĺëĭ¤":1862,"ìŀĳíĴĪ":1863,"Ġë¬´ìĹĩ":1864,"ê´ĳ":1865,"ĠëĶĶ":1866,"ìķĦê¹Ŀ":1867,"Ġìĸ´ìĦ¤":1868,"ĠìķĮë°Ķ":1869,"ëĭ¥":1870,"íķľê±°":1871,"Ġì¢ĭìķĦíķĺëĬĶ":1872,"íĹĺ":1873,"ĠìĤ¼":1874,"Ġìŀ¬ë¯¸ëıĦ":1875,"Ġíĸīë³µ":1876,"Ġë³´ëĭ¤ê°Ģ":1877,"ì§Ŀ":1878,"ìŀĸ":1879,"ìĿ¼ë³¸":1880,"ĠêµŃ":1881,"oo":1882,"ë©ĭ":1883,"Ġìŀ¬ë¯¸ìĹĨëĭ¤":1884,"ĠìĿ´íķ´ê°Ģ":1885,"ĠìĤ°":1886,"íĶĮ":1887,"ìĹ´":1888,"Ġê¹Ĭ":1889,"ê²¬":1890,"ĠìĿ´ê±¸":1891,"ĠìĥĿê°ģìĿ´":1892,"¬ë§ģíĥĢìŀĦ":1893,"ì¶©":1894,"ĠíĮĲ":1895,"ëĶĶìĺ¤":1896,"ìłĲìĿĦ":1897,"Ġì§Ħìĭ¬":1898,"ìķĦë¬´":1899,"Ġë³Ģ":1900,"ìĿ´ëĦ¤ìļĶ":1901,"ìķĦê¹Į":1902,"ë¶Ģë¶Ħ":1903,"Ġìĭľê°ĦìĿ´":1904,"ìļķ":1905,"êµ¬ë§Į":1906,"ĠíĻį":1907,",,,":1908,"ĠìĿ¸ìĥģ":1909,"ĠìĬ¤íĨłë¦¬ëıĦ":1910,"ë¦¬ì§Ģ":1911,"ĠëŃĺ":1912,"ìĤ¼":1913,"Ġìĸ´ìĥī":1914,"Ġë¬´ìĦŃ":1915,"ĠìłĲìĪĺ":1916,"ĠìĹĨìĿ´":1917,"ë§Ľ":1918,"ëıĻìķĪ":1919,"ìĹ½":1920,"Ġíŀĺëĵ¤":1921,"ìłĲëĮĢ":1922,"Ġìŀĳê°Ģ":1923,"Ġëĵ¤ìĸ´":1924,"ĠìķĦì§ģëıĦ":1925,"ĽëĤł":1926,"ë²ł":1927,"ĠìĬ¤íĨłë¦¬ê°Ģ":1928,"Ġì¼":1929,"ëŁ½ê²Į":1930,"Ġëª»íķľ":1931,"Ġíķ¨ê»ĺ":1932,"ĠìĿ´ìĺģíĻĶ":1933,"ìļ°ë¦¬":1934,"Ġìłľëª©":1935,"ĠìķłëĭĪ":1936,"ëģĶ":1937,"ëĤ¨ìŀĲ":1938,"Ġê°ĳ":1939,"ì¶ĺ":1940,"ìĿĦëĵ¯":1941,"Ġìŀ¡":1942,"Ġê·¸ëŁ¬":1943,"ĠìĹ¬ìļ´ìĿ´":1944,"ĠìķĪë³´":1945,"ĠíĻķ":1946,"Ł¬ë":1947,"ĠëĦ¤":1948,"ĠìĤ¬ìĭ¤":1949,"Ġëĳĺ":1950,"Ġê¸¸":1951,"Ġìĭľì²Ń":1952,"Ġê¶ģ":1953,"ĠìĨĮë¦Ħ":1954,"ì¹¨":1955,"Ġëĭµëĭµ":1956,"ëħ¸ìŀ¼":1957,"ĠìŀĲìĭł":1958,"ëĵ¤ìĹĲê²Į":1959,"Ġë³´ë©´ìĦľ":1960,"Ġê°ĲëıħìĿĺ":1961,"ìħ¨":1962,"Ġìī":1963,"Ġë¬¸ìłľ":1964,"~!":1965,"Ńë¹Ħ":1966,"Ġì°¾ìķĦ":1967,"ì¿":1968,"Ġë¿Ĳ":1969,"ĠëĽ°":1970,"ìĿ´ì§Ģë§Į":1971,"ëĺĲ":1972,"ĠìĭłìĦł":1973,"ìĿĮìķħ":1974,"ìĽĶ":1975,"íĺľ":1976,"Ġë©ĭì§Ħ":1977,"ìĿ´ìķ¼ê¸°":1978,"Ġê¹¨":1979,"Ġíĭ°":1980,"ê±°ë¦¬":1981,"ê±´ê°Ģ":1982,"Ġíķĺì§Ģ":1983,"Ġìĸ´ìĿ´":1984,"Ġê´ľì°®ìĿĢ":1985,"ê²¼":1986,"ìŀĲê¸°":1987,"ĠëĤĺë¦Ħ":1988,"ëįĶëĭĪ":1989,"ĪëįĶ":1990,"Ġ6":1991,"íķĺìĭľ":1992,"Ġê°ĲëıħìĿ´":1993,"Īë³´":1994,"Ġë¹¨":1995,"ìĬ·":1996,"Ġë¶ĦìľĦ":1997,"ĠíĹĪìłĳ":1998,"ĠìĬ¤ë¦´ëŁ¬":1999,"ĠìĹĶ":2000,"ĠëĤļ":2001,"ëĿ¼ìĿ´":2002,"ìĨĮë¦¬":2003,"ëĭ¤ë¥¸":2004,"Īëģ":2005,"êµ¬ìļĶ":2006,"Ġê´Ģê°Ŀ":2007,"ê²Ł":2008,"ì£¼ìĿĺ":2009,"Ġìļ©":2010,"ëĤĺë§Ī":2011,"ĠìĦ¸ìĥģ":2012,"ĠC":2013,"ì£Ħ":2014,"Ġë³´ìĦ¸ìļĶ":2015,"Ġë¯¸êµŃ":2016,"ĠìķĪíĥĢ":2017,"ĠìŀĶìŀĶ":2018,"Ġìŀ¼ìŀĪ":2019,"ëª°":2020,"âĻ¡":2021,"Ġíļ":2022,"Ġ\"\"\"\"":2023,"ëĳ":2024,"Ġìŀ¬ë¯¸ê°Ģ":2025,"Ġë¦¬ë":2026,"ĠìĭľëĤĺë¦¬ìĺ¤":2027,"Ġíģ°":2028,"ìľ¤":2029,"ì¤ĳê°Ħ":2030,"Ġë§ĺ":2031,"ë§Įëĵł":2032,"Ġì¡¸ìŀĳ":2033,"Īë²":2034,"ĠíĿĲ":2035,"ĠíĻ©":2036,"ì»¤":2037,"íķľìĺģíĻĶ":2038,"íķĺë©°":2039,"íķ¨ìĿĦ":2040,"Ġ0":2041,"ĠìļĶì¦ĺ":2042,"ìłĦê°ľ":2043,"ì¡¸":2044,"ĠìĹ°ê¸°ëĬĶ":2045,"ë¹Ī":2046,"ì±ħ":2047,"ë§ĪëĿ¼":2048,"Ġê¸Ģ":2049,"íĥĿ":2050,"ê°ĻìĿ´":2051,"Ġì°¨ëĿ¼ë¦¬":2052,"ĠìŀĪìĹĪ":2053,"Ġë§ĮíĻĶ":2054,"ì°¬":2055,"Ġìĸ¼ë§ĪëĤĺ":2056,"ĠëıĮìķĦ":2057,"ĠëĤĺëĬĶ":2058,"ëłĪìĿ´":2059,"Ġë°°ê²½":2060,"ĠìĬ¬íĶĦ":2061,"Ġìĸ¸ìłľ":2062,"Ġê°ķì¶Ķ":2063,"Ġì²¨":2064,"ë§ĪëĶĶ":2065,"ĠíĻĺ":2066,"ĠíĽĦíļĮ":2067,"Ġì©":2068,"ì²Ļ":2069,"ĠëĬĲëĤĮìĿ´":2070,"Ġì¼Ģ":2071,"ê¸¸ëŀĺ":2072,"ĠìĻĦë²½":2073,"ĠëĤ«":2074,"ë³´ëĭ¨":2075,"Ġíĺ¼":2076,"!!!!!!!!":2077,"Ġìĸ´ëĸ¤":2078,"ĠìķĦë¦Ħëĭµ":2079,"ê°Ģì§Ģ":2080,"ëĮĢíķľ":2081,"Ġê·ĢìĹ¬":2082,"st":2083,"Ġëª¸":2084,"íĺĦìĭ¤":2085,"ì±Ħ":2086,"íĭ±":2087,"ëĭ¹íŀĪ":2088,"ĠìĺģíĻĶëĿ¼":2089,"ëŀĦ":2090,"ĠìķĬìķĺ":2091,"Ġìĸĳ":2092,"ê¹Ĭ":2093,"ë³´ëĭĪ":2094,"ëªĩ":2095,"íĸĪìĿĮ":2096,"Ġê·¸ìłĢ":2097,"ìĻĦ":2098,"ĠìĤ¬ëŀĮìĿ´":2099,"íķĻêµĲ":2100,"Ġë»Ķíķľ":2101,"Ġì£¼ê³ł":2102,"ĠìķĮê³ł":2103,"ĠìĭĿ":2104,"Ġê²ĥìĿ´":2105,"ì¤Į":2106,"Ġëĭ¤íģĲ":2107,"ãħłãħłãħłãħł":2108,"ĠìķłëĭĪë©ĶìĿ´ìħĺ":2109,"ĠíĨł":2110,"Ġë²Ķ":2111,"ëĬĲëĤ":2112,"ìŀĪê³ł":2113,"íĥĪ":2114,"ìķĪëĲĺ":2115,"íħĲëį°":2116,"ĠìŀĪê³ł":2117,"ĠëĵľëĿ¼ë§Īë":2118,"ìĿ¸ì¤Ħ":2119,"Ġìŀ¬ë°ĮëĬĶ":2120,"Ġìĸĺ":2121,"ìĿ´ë²Ħ":2122,"ĠìĺģíĻĶëıĦ":2123,"ìľłì¹ĺ":2124,"íıŃ":2125,"Ġì´Ŀ":2126,"Ġì²Ń":2127,"ìŀ¬ë¯¸ìĹĨ":2128,"Ġì¶Ķìĸµ":2129,"Ġãħİ":2130,"ĠìĽĥìĿĮ":2131,"ìĽħ":2132,"Ġëª¨ë¥´ê²łëĭ¤":2133,"ĠíĿ¬":2134,"Ġê¸°ìĸµìĹĲ":2135,"ìĭ¸":2136,"Ġìŀ¥ëĤľ":2137,"ĠìĭľëĮĢ":2138,"ĠìłĦìŁģ":2139,"Ġê°ĻìĿ´":2140,"Ġê·¸ëłĩê²Į":2141,"ìĭľê¸¸":2142,"ëªħìŀĳ":2143,"Ġê¶ģê¸Ī":2144,"ê°ĳ":2145,"ê±°ì§Ģ":2146,"ì¼ľ":2147,"íı¬ë":2148,"ìĽłëĭ¤":2149,"ëĵ¤ê³¼":2150,"Ġì¶©ë¶Ħ":2151,"ëŁ´":2152,"Ġíķľëĭ¤":2153,"ëł¤ëĬĶ":2154,"ĠìĹĶëĶ©":2155,"Ġê°Ĳìłķ":2156,"ê´ĢìĹĲìĦľ":2157,"Ġê²°êµŃ":2158,"ì½©":2159,"ìĿ´ê±¸":2160,"ì°į":2161,"ë¬´ìĬ¨":2162,"20":2163,"Ġë´¤ìĸ´ìļĶ":2164,"ê²ĥê°Ļ":2165,"Ġê¹Į":2166,"ëĭĿ":2167,"ìĬ¤íĥĢ":2168,"ì°°":2169,"ë´Ħ":2170,"ë¥´ëĬĶ":2171,"ëł¥ìĿ´":2172,"ĠìķĪëĲĺëĬĶ":2173,"Ģìŀ¼":2174,"ĠíĿĺ":2175,"Ġì§Ģë£¨íķľ":2176,"ìłķíķľ":2177,"Ġë¹łìł¸":2178,"ĠìĬ¤íĥĢ":2179,"Ġì§ĳì¤ĳ":2180,"Ġë¬¸":2181,"Ġê¿Ī":2182,"ìĿ¸ê°Ħ":2183,"ìķ¼ì§Ģ":2184,"ë²Ħë¦°":2185,"Ġì£¼ìĹ°":2186,"íķ¨ìĿ´":2187,"Ġê°ľìĹ°":2188,"ĠëĶ°ëĿ¼":2189,"Ġìĸ´ë¦°":2190,"ìłľëª©":2191,"Ġë°°ìļ°ëĵ¤ìĿĺ":2192,"°°ìļ°":2193,"Ġíħ":2194,"ëŁŃ":2195,"ë°Ģ":2196,"Ġì¢ħ":2197,"ĪëĶ©":2198,"íİĺ":2199,"ê´´":2200,"īìŀ¥":2201,"Ġì£":2202,"ê°Ķ":2203,"ìĦ±ìĿĦ":2204,"ĠíıŃ":2205,"ëł¸ëĭ¤":2206,"ĠíķĺëĤĺëıĦ":2207,"íĻľ":2208,"ĠìķĶ":2209,"ĠìĺģíĻĶì¤ĳ":2210,"Ġì¶©ê²©":2211,"ë³Ģ":2212,"ìŀ¬ë°Įê²Į":2213,"ëĲł":2214,"ĠìĺģíĻĶëĦ¤ìļĶ":2215,"ĠíķĻ":2216,"ĠíĶĦ":2217,"íĸĪì§Ģë§Į":2218,"ĠíĪ":2219,"ëģĦ":2220,"ĠìĺĪìĪł":2221,"ë¡Ń":2222,"íİ¸ìĿ´":2223,"ĠìľĦíķ´":2224,"ĠB":2225,"ĠëģĮ":2226,"ëĨĵê³ł":2227,"ìĪĺì¤Ģ":2228,"Ġì½Ķë¯¹":2229,"ëĮĢë°ķ":2230,"ìŀĲì²´":2231,"Ġt":2232,"Ġãħľãħľ":2233,"ĠìķĬëĬĶëĭ¤":2234,"ìĺģìĥģ":2235,"Ġì§Ħë¶Ģ":2236,"Ġìŀ¬ë°Įìĸ´ìļĶ":2237,"íķĺíķĺ":2238,"ĠìŀĦ":2239,"ĠíĦ°":2240,"......":2241,"ĠëĽ°ìĸ´":2242,"ìĭľëĮĢ":2243,"ĠìĬ¤íĨł":2244,"Ġëıĭ":2245,"????":2246,"Įĵ":2247,"ì¹ł":2248,"ëĿ¼ë©´":2249,"ĠìľĦíķľ":2250,"ìĿ´ìĺģíĻĶ":2251,"ê¸°ë§Į":2252,"íķ´ì§ĢëĬĶ":2253,"ìĪĺìŀĪ":2254,"ê³µíı¬":2255,"Ġë¯¼":2256,"ĠìĿ´ìģĺ":2257,"íŀĪë":2258,"Ġì§Ģë£¨íķĺê³ł":2259,"Ġì»¤":2260,"ĠìĻľìĿ´":2261,"ìĽĮìĦľ":2262,"ëĲľëĭ¤":2263,"ë¦¬ìĬ¤":2264,"Ġíĥľ":2265,"ĠìĹĨìĹĪëĭ¤":2266,"ĠëĤĺëıĦ":2267,"ìī¬":2268,"ìķĦì£¼":2269,"ë³´ëĭ¤ê°Ģ":2270,"ĠíĮ¨":2271,"ê°ĢìĦľ":2272,"ìĿ´ëĿ¼ëıĦ":2273,"Ġë¹ĦìĬ·":2274,"ĵ´":2275,"ëĭ¹ìĭľ":2276,"Ġëª°ìŀħëıĦ":2277,"ìħĶ":2278,"ľë¡ľ":2279,"íĻį":2280,"ĠìĿ´ë¦Ħ":2281,"ì²ł":2282,"ĠìĿ½":2283,"Ġì±ħ":2284,"ìłł":2285,"ê²ĥìĿĦ":2286,"Ġë§Įëĵ¤ìĹĪ":2287,"ê·¸ë¦¬ê³ł":2288,"ĠìĨĶì§ģíŀĪ":2289,"Ġë°±":2290,"íĺ¹":2291,"Ġê±į":2292,"ĠíĥĦ":2293,"Ġíģ´":2294,"Ġ,":2295,"ê·¸ëŁ°":2296,"ëĵ¯íķľ":2297,"ĠìĤ¬ëŀĮëĵ¤":2298,"ìĺ´":2299,"Ġì§Ģë£¨íķĺëĭ¤":2300,"ĠìºĲìĬ¤íĮħ":2301,"ë³´ê¸°":2302,"ì½Ķë¯¸ëĶĶ":2303,"íĸĩ":2304,"Ġê´´":2305,"ëĨĢ":2306,"Ġì£¼ìłľ":2307,"Ġìľłì¾Į":2308,"ĠíĮ¬":2309,"ĠíĽ¨ìĶ¬":2310,"ìĿ´ìłľ":2311,"Ġë¨¼":2312,"ìĺ¬ë":2313,"Ġê·¸ë§Į":2314,"Ġìĸ´ëĬĲ":2315,"Ġë¹ĦêµĲ":2316,"ãĦ±":2317,"Ġë¶ĪìĮį":2318,"Ġìļ°ë¦¬ëĤĺëĿ¼":2319,"ì°Į":2320,"Ġ!":2321,"ìĿ¸ìĿĺ":2322,"ë°ĺìłĦ":2323,"Ġìĸ¼êµ´":2324,"Ġìĥģìĥģ":2325,"ìĨĮìŀ¬":2326,"Ġëĺĳ":2327,"Ġê³µíı¬ìĺģíĻĶ":2328,"ĠOOO":2329,"ìĸ´ëĸ":2330,"Ġë³ĳ":2331,"ë³´ì§Ģ":2332,"Ġë¶Īë":2333,"ê²łì§Ģë§Į":2334,"íĿ¥":2335,"Ġê±¸ìŀĳ":2336,"ĠíĶĦë¡ľ":2337,"ĠëĪĪë¬¼ìĿ´":2338,"ĠëįĶë¹Ļ":2339,"Ġìĺ¤ëŀĺ":2340,"ìŀĶìŀĶ":2341,"ĠëıĦëĮĢì²´":2342,"¬ëĭ¤":2343,"ê¼Ń":2344,"Ġìµľê³łëĭ¤":2345,"ì§Ģì§Ģ":2346,"Ġë§Īì§Ģë§īìĹĲ":2347,"Ġì±Ħ":2348,"Ġê²ĥìĿĦ":2349,"Ġê°ĲëıĻëıĦ":2350,"ìĭľíĤ¤":2351,"ĠìĹ°ê¸°ë¥¼":2352,"íĥĢì§Ģ":2353,"ĠìķĮìķĺ":2354,"Ġë²Ī":2355,"ĠìĦ¤ìłķ":2356,"íķľë²Ī":2357,"Ġìĥī":2358,"Ġë³´ìĹ¬ì£¼ëĬĶ":2359,"ľìĹĲ":2360,"ìľ¼ëĭĪ":2361,"ìłķëıĦë¡ľ":2362,"ìĿ´ìĹĪëĭ¤":2363,"ë¥ł":2364,"¬ë§ģíĥĢìŀĦìļ©":2365,"ĠìŀĪìĿĦ":2366,"Ġê¸°ìĸµìĿ´":2367,"ìļĶì¦ĺ":2368,"Ġë°ĸìĹĲ":2369,"ĠìĹĨìĸ´":2370,"ë£Į":2371,"íĶ½":2372,"ëĤĺìĺ¨":2373,"ë´£":2374,"ê²łì§Ģ":2375,"ê·¹ìŀ¥":2376,"Ġë§¤ìļ°":2377,"ĠìĿ´ëĶ´":2378,"Ġê°ĸ":2379,"Ġê²ĥëıĦ":2380,"ãħĩãħĩ":2381,"ĠìĹīìĦ±":2382,"ë§īìŀ¥":2383,"ì¯¤":2384,"ëĶ±":2385,"ìĹ°ì¶ľ":2386,"ĠëĬĲëĤĦ":2387,"£¨":2388,"ë»":2389,"ìĬ¤ëŁ½ëĭ¤":2390,"íķĦìļĶ":2391,"ood":2392,"ê°ĢìĬ´":2393,"ë³´ë©´ìĦľ":2394,"ìĬ¤ë¦´":2395,"ì§Ħìĭ¬":2396,"ìĹĶëĶ©":2397,"ìĬ¤ê°Ģ":2398,"ë§ĪìĿĮ":2399,"ìĿ´ëĿ¼ë©´":2400,"ĠìķĮê²Į":2401,"Ġê°ĲëıĻìłģìĿ´":2402,"ë¨¼":2403,"íģ¬ë":2404,"Ġì¢ĭìķĦìļĶ":2405,"ĠìĪľìĪĺ":2406,"ê½":2407,"ëŀĲ":2408,"ĠìĥģíĻ©":2409,"ĩ¼":2410,"ì§ķ":2411,"ãħħ":2412,"ìĭľìłĪ":2413,"ë§Ĳê³ł":2414,"Ġê´ĳ":2415,"Ġë§Ľ":2416,"ĠëĮĢíķ´":2417,"Ġìŀ¬ë°ĮìĿĮ":2418,"ê°ľëıĦ":2419,"ëħĦëıĦ":2420,"ë²Ħì§Ģ":2421,"ĠëĨĵ":2422,"ĠëĭĪ":2423,"ë´¤ëĭ¤":2424,"ë§İìĿĢ":2425,"ì¸ł":2426,"ĠìŀĶìĿ¸":2427,"ĠìĺģíĻĶìĺĢëĭ¤":2428,"ë¡łê°Ģ":2429,"ìĸ´ë¦´":2430,"ê¹Ĳ":2431,"ê²Ĳ":2432,"ìłģìĿ´ëĭ¤":2433,"Ġë§ĲëıĦ":2434,"Ġì§Ģë£¨íķ¨":2435,"ĠíĽĦë°ĺ":2436,"Ġê½¤":2437,"´¤":2438,"ìķĹ":2439,"ì§ľì¦Ŀ":2440,"Ġêµ°":2441,"ë¹¨":2442,"ĠìķĬëĭ¤":2443,"íķĻìĥĿ":2444,"ª½":2445,"Ġëķ":2446,"ìľ¼ë©´ìĦľ":2447,"ìĺ¤ëŀľë§ĮìĹĲ":2448,"íİ¸ìĿĢ":2449,"ĠìĨĮìŀ¬ë":2450,"ìĵ¸":2451,"Ġì£Ħ":2452,"ë³´ê²Į":2453,"Ġëĭ¹ìĭľ":2454,"Ġê·¹ìŀ¥ìĹĲìĦľ":2455,"´ĲëıĦ":2456,"ëı¼":2457,"Ġê·¸ëĤĺë§Ī":2458,"ìĹĪê³ł":2459,"Ġê°ĻìķĦìļĶ":2460,"íĤ¨":2461,"Ġë¸Ķ":2462,"Ġì¢ĭê²ł":2463,"Ġë°Ķë¡ľ":2464,"ëĪĪ":2465,"TV":2466,"ëŀį":2467,"ê°ĲìĿ´":2468,"Ġìłľë°ľ":2469,";;;;":2470,"ê±°ê°Ļ":2471,"ĠìĿ¸ë¬¼":2472,"Ġê°ĪìĪĺë¡Ŀ":2473,"Ġë³´ëĬĶëĤ´ëĤ´":2474,"ì³¤":2475,"ìķĦê¹Ŀëĭ¤":2476,"ìŀĸìķĦ":2477,"Ġë³´ìķĺ":2478,"ĠìĹŃìĤ¬":2479,"ê´ľì°®":2480,"ëĴ¤":2481,"ĠìĻł":2482,"ê±´ëį°":2483,"Ġì·¨":2484,"Ġë³´ëĭĪ":2485,"Ġë¯¸ì¹ľ":2486,"Ġëĺ¥":2487,"Ġê°ĲëıĻìĿ´":2488,"ĠìĤ¬ëŀĮëĵ¤ìĿ´":2489,"er":2490,"íķ´ëĿ¼":2491,"ëħĦìĿ´":2492,"ê³¡":2493,"ìŀ¬ë°Įìĸ´ìļĶ":2494,"Ġ~":2495,"ìĨĲ":2496,"ìŀ¬ë¯¸ìĹĨëĭ¤":2497,"íĭĢ":2498,"Ġo":2499,"ìĪĺë¥¼":2500,"ìĭłìĿ´":2501,"Ġë¡ľë§¨ìĬ¤":2502,"ê°Ģì¡±":2503,"ĠìĿ´íĽĦ":2504,"ì§ľë¦¬":2505,"ìĹ°íŀĪ":2506,"ĠìķĦëĭĺ":2507,"ëª¨ë¥´":2508,"ìŀĲê°Ģ":2509,"īìŀ¥íŀĪ":2510,"ĠìĺģíĻĶìŀĦ":2511,"ëĵ¤ìĸ´":2512,"ìŀ¬ë°Įëĭ¤":2513,"ìķĮë°Ķ":2514,"ëĤĺìĺ¤ëĬĶ":2515,"Ġíķ´ìĦľ":2516,"ê°Ģê³ł":2517,"Ġë§ĺìĹĲ":2518,"ìķĦëĭĮ":2519,"íĦ":2520,"ê±°ìķ¼":2521,"ëł¤ìĦľ":2522,"ĠíĸĪëĬĶëį°":2523,"ìľ¨":2524,"ê°ľë´ī":2525,"Ġë§ĪìĿĮìĿ´":2526,"ĵľ":2527,"ãħĭãħĭãħĭãħĭãħĭãħĭãħĭãħĭãħĭãħĭãħĭãħĭãħĭãħĭãħĭãħĭ":2528,"Ġìķ½ê°Ħ":2529,"Ġê°ĲìĤ¬":2530,"ê·¸ëŀĺëıĦ":2531,"ĠìĿĢ":2532,"ì£¼ìĦ¸ìļĶ":2533,"ĠëĦĪë¬´ëĤĺ":2534,"ĠëĬĺ":2535,"ìĶ©":2536,"ëł¹":2537,"êµ³":2538,"íĴį":2539,"íķĦ":2540,"íķłëķĮ":2541,"Ġìŀĺëª»":2542,"ĠìķĪëĲ":2543,"ì´Īë°ĺ":2544,"Ġíıīê°Ģ":2545,"ĠìĥĿê°ģìĿĦ":2546,"Ġë²Į":2547,"Ġëĭ¬":2548,"ĠìłĦë¶Ģ":2549,"Ġìĺ¤ê¸Ģ":2550,"Ġìĺ¤ëĬĺ":2551,"ì¡Įëĭ¤":2552,",.":2553,"ìĹ¬ìĦľ":2554,"Ġì¤ĳêµŃ":2555,"Ġë°ľìĹ°ê¸°":2556,"Ġì³":2557,"ëĤ®":2558,"Ġëĭ¤ìĿĮ":2559,"ĠìĹ¬ê¸°":2560,"ê²¹":2561,"Ġê·¸ëĮĢë¡ľ":2562,"Ġì²«":2563,"Ġê·¸ëŀĺìĦľ":2564,"ĠëĨĴìĿĢ":2565,"ĠíĴį":2566,"Ġë¸Į":2567,"ëĬĲëĤĮ":2568,"ëļ":2569,"ê±°ëĤĺ":2570,"ĠìŀĪìĿĦê¹Į":2571,"Ġì²ł":2572,"®¤":2573,"ìĽĮìļĶ":2574,"ĠìłķëıĦë¡ľ":2575,"ìĪĻ":2576,"ëĲ¨":2577,"íĶĶ":2578,"ë¦°ëĭ¤":2579,"Ġì´Īë°ĺ":2580,"Ġìĺģìĥģë¯¸":2581,"Ġìĸ´ìļ¸":2582,"ĠìķĦìī½ëĭ¤":2583,"ĠíĪ¬":2584,"íķĺìŀĲ":2585,"ëħĲ":2586,"Ġì§ĢëĤĺ":2587,"ëŃĶê°Ģ":2588,"Ġëĭ¤ë¥´":2589,"ê°Ħëĭ¤":2590,"ĠíĿĶ":2591,"ë¨¸ëĭĪ":2592,"Ġê°ĻìĿĢëį°":2593,"Ńìĥģ":2594,"ĠìĿ´ë¯¸":2595,"ìķĦìķ¼":2596,"ë§ĪìĦ¸ìļĶ":2597,"ĠìŀĪì§Ģë§Į":2598,"Ġê·ĢìĹ½":2599,"ĠíĤ¤":2600,"ê·¸ëŀ":2601,"Ġë´ĲìĦľ":2602,"Ĳë¦¬":2603,"Ġë§Īë":2604,"Ġê¸°ëĭ¤":2605,"ê·¼ëį°":2606,"ë¶Ħëĵ¤":2607,"ìĭľê°ĦìĿ´":2608,"ĠìĺģíĻĶìĿ¸ëį°":2609,"ìĺģíĻĶìĹĲ":2610,"ìĹĲìĦľëıĦ":2611,"Ġìĸ¸":2612,"ĠëĶ¸":2613,"ĠCG":2614,"ãħĤ":2615,"ëĤŃë¹Ħ":2616,"ëĿ¼ìĦľ":2617,"ë³´ëĭ¤ëĬĶ":2618,"ë´¤ìĬµëĭĪëĭ¤":2619,"Ġëĵ±ìŀ¥":2620,"ĠëĤĺìĻĢìĦľ":2621,"-_-":2622,"ëĤĺìĻĢ":2623,"Ġìĺ¨":2624,"Ġìŀ¥ë¥´":2625,"ĠìķĪëĲľ":2626,"ê°ĲëıħìĿ´":2627,"ĠêµĲíĽĪ":2628,"ĠëĮĢì²´":2629,"ìķĶ":2630,"Ġë´¤ì§Ģë§Į":2631,"Įĵê¸Ģ":2632,"ìĺ¥":2633,"Ġíķĺëĭ¤":2634,"ìŀĳê°Ģ":2635,"Ġìŀ¬ë°Įê³ł":2636,"Ġc":2637,"ìĿĦìĪĺ":2638,"ìĿĦíħĲëį°":2639,"Ġì¢ĭìĿĢëį°":2640,"ĠìķĦë¦Ħëĭ¤":2641,"Ġãħīãħī":2642,"ìĺģíĻĶëĭ¤":2643,"ĠìĪ¨":2644,"................":2645,"¬ë¦¬ìĬ¤":2646,"ìĤ¬ë¥¼":2647,"ĠìłĦì²´":2648,"Ġë³´ê³łìĭ¶":2649,"ĠëĤ´ìļ©ìĿĢ":2650,"ì·¨":2651,"Ġìı":2652,"ìĹī":2653,"ìŀĪëĦ¤ìļĶ":2654,"ìĹĪì§Ģë§Į":2655,"Ġë³¼ìĪĺ":2656,"Ġì¤Ģëĭ¤":2657,"ĠìłĪ":2658,"ìķĦë¦Ħ":2659,"ìķĦì§ģ":2660,"ĠìĤ¬íļĮ":2661,"ãĦ´":2662,"ë§ĪëĶĶë¡ľ":2663,"Ġb":2664,"ìķŀ":2665,"ĠìĥĪë¡ľ":2666,"Ġê°ĲëıĻìĿĦ":2667,"íķĺëĥĲ":2668,"ë©ĺ":2669,"ìĽĥìĿĮ":2670,"Ġì§ģ":2671,"íĥķ":2672,"Ġê°ľìĿ¸ìłģìľ¼ë¡ľ":2673,"Ġë¹ĦëĶĶìĺ¤":2674,"ìĿ´íķ´":2675,"¬ë¦¬ë":2676,"ì§Ģë¥¼":2677,"ĪëĥĲ":2678,"ê·ľ":2679,"¸Į":2680,"ìĺĢìĿĮ":2681,"Ġë©į":2682,"¥´":2683,"âĺ":2684,"ê³łëĬĶ":2685,"Ġìŀĥ":2686,"Ġìķķ":2687,"ĠìĦ¹":2688,"ë°°ìļ°ëĵ¤":2689,"Ġì«":2690,"Ġë´£":2691,"ìĹĲìĦľëĬĶ":2692,"ĠëįĶìļ±":2693,"ĠíķľêµŃìĺģíĻĶ":2694,"Ġì¡´ìŀ¬":2695,"ìĭŃ":2696,"Ġê±°ìĿĺ":2697,"Ġêµ¬ìĦ±":2698,"Ġ?":2699,"ëŁī":2700,"ëŀĳìĬ¤":2701,"ĠìĻķ":2702,"ëĭ¤ëĬĶê²Į":2703,"Ġëĭ¤ìļ´":2704,"ìĤ¬ê°Ģ":2705,"Ġíĺ¼ìŀĲ":2706,"¶Ģ":2707,"ìĹĲìĦł":2708,"ëĪĪë¬¼":2709,"ĠS":2710,"ë¡ľìļ´":2711,"ìĭľë¦¬ì¦Ī":2712,"Ġê°Ģì¹ĺ":2713,"íĮ¬":2714,"ìĭ¤ë§Ŀ":2715,"Ġìŀ¬ë¯¸ìĹĨìĿĮ":2716,"ì¶Ķì²ľ":2717,"ìĺĪìļĶ":2718,"ĠëĤ®ìĿĢ":2719,"ĠëĪĦê°Ģ":2720,"Ġíı¬ìĬ¤íĦ°":2721,"ĩĮ":2722,"ĠìŀĪìĸ´ìĦľ":2723,"Ġìŀ¥ë©´ìĿ´":2724,"Ġê°ĢìĬ´ìĿ´":2725,"ìĿ´íĮħ":2726,"íĭ´":2727,"ëĨĶ":2728,"ìĿ¼ìĿ´":2729,"ĠíĬ¸":2730,"ìĭľëĭ¤":2731,"ìĪ¨":2732,"ĠíĹĪë¬´":2733,"Ġs":2734,"ëĵ¬":2735,"ìĤ¬íļĮ":2736,"ĠìĹ¬ì£¼ìĿ¸ê³µ":2737,"Ġì½":2738,"ìĺ¤ëĬĺ":2739,"Ġëĵ£":2740,"ë§İìĿ´":2741,"íĮĮìĿ´":2742,"ë²Īì§¸":2743,"ëıĦëĮĢì²´":2744,"íķľê²Į":2745,"ĠëĤĺìĺ¬":2746,"Ġê°ĲëıĻìłģìĿ¸":2747,"ĠìłĢëŁ°":2748,"~!!":2749,"ìĿ´íĬ¸":2750,"Ġê·¸ë¦¬":2751,"ĠìĥĿê°ģíķĺê²Į":2752,"good":2753,"ëĦĲ":2754,"ìĨįìĹĲ":2755,"Ġë§ĪìĿĮìĹĲ":2756,"ĠìķĦë¬´ë¦¬":2757,"ìĹĲê²Ĳ":2758,"ĠìĿ´ê²ĥ":2759,"ìĿ¸ëĭ¤":2760,"ìĿ´ëĿ¼ëĭĪ":2761,"ĠìĹĦë§Ī":2762,"ĠBê¸ī":2763,"Ġìĵ¸":2764,"íĻķ":2765,"Ġë°©ìĨ¡":2766,"ĠìĿ´ìłķëıĦ":2767,"ìĸ´ë¦°":2768,"ì¢ĭëĭ¤":2769,"ë©ĶëĶĶ":2770,"ĠìŀĲì²´ê°Ģ":2771,"ë§ĮíĻĶ":2772,"ĠìŀĪìĸ´":2773,"ê²°ë§Ĳ":2774,"Ġëĭ¨ìĪľ":2775,"ëłµ":2776,"ĠìŀĪìĹĪëĭ¤":2777,"ìķĺìĿĮ":2778,"Ġë©ľë¡ľ":2779,"Ġë´ĲëĿ¼":2780,"Īëģ¼":2781,"ìĹ¬ìļ´":2782,"ìłĢíŀĪ":2783,",,,,":2784,"ë³´ëĬĶëĤ´ëĤ´":2785,"Ġìį¨":2786,"ëĿ¼ëĭĪ":2787,"ë¶ģ":2788,"ĠìĦ¸ê³Ħ":2789,"ìĿµ":2790,"ê¸°ê³ł":2791,"Ġë¹µ":2792,"Ġìķłëĵ¤":2793,"ĠìĺĪìģĺ":2794,"Ġ30":2795,"Ġãħ¡":2796,"ê¸Īë":2797,"Ġëĭ¤ëĵ¤":2798,"Ġë´¤ìĿĮ":2799,"Ġëª»íķĺëĬĶ":2800,"ìĭ«":2801,"ìĺģíĻĶì¤ĳ":2802,"Ġë´Ħ":2803,"ì½ľ":2804,"ì¥":2805,"ê¸°ìĸµ":2806,"íĸĪìĸ´ìļĶ":2807,"ëŁ¬ìļ´":2808,"ëĤĺë¦Ħ":2809,"Ġ100":2810,"ĠìĺĪìĥģ":2811,"ĠíĸĪëĭ¤":2812,"ëĤ´ìļ©ìĿ´":2813,"Ġê°ģë³¸":2814,"íķĺëĭĪ":2815,"ĠìŀĪëĬĶëį°":2816,"ĠìĺĽëĤł":2817,"Ġë§Įëĵľ":2818,"ëħĦìłĦ":2819,"Ġë¹Ľ":2820,"ëĲĺê³ł":2821,"Ġì¤ĳìļĶ":2822,"íķĺì§ĢìķĬ":2823,"¬ë¦°":2824,"ĠíĻĶëł¤":2825,"ì§Ģê²Į":2826,"ìĸ´ê°Ģ":2827,"Ġì°©":2828,"ì°¨ëĿ¼ë¦¬":2829,"Ġê·¸ëŁ°ì§Ģ":2830,"ìĬ¤ëŁ½ê³ł":2831,"Ġì¹ľêµ¬":2832,"ë¦¬íĭ°":2833,"ìĬ¤ìĿĺ":2834,"ĠìĥĿê°ģíķ´":2835,"Ġê°ľê·¸":2836,"ĠëģĿëĤĺ":2837,"ĠìŀĲìĹ°":2838,"ìľłìĿĺ":2839,"ĠìķĦëĭĲ":2840,"·°":2841,"Ġìŀ¬ë¯¸ìŀĪëĬĶ":2842,"ĠìĤ¼ë¥ĺ":2843,"Ġì³Ĳ":2844,"ê³¨":2845,"ëĵ¤ìķĦ":2846,"ìļ°ëĵľ":2847,"Ġê°Ģì§Ģê³ł":2848,"ĠíıīìłĲìĿĦ":2849,"ìĸµì§Ģ":2850,"ĠìĬ¬íĶĪ":2851,"Ġ(":2852,"Ġíĺ¹":2853,"Ġìĥģëĭ¹íŀĪ":2854,"Ġëıĭë³´":2855,"ëıĦë¡Ŀ":2856,"ĠìĹĨìĸ´ìĦľ":2857,"ĠìŀĲê¸°":2858,"Ġê·¹ìŀ¥íĮĲ":2859,"99":2860,"ĠìĻĶ":2861,"Ġë¶Īíİ¸":2862,"Ġíĭ°ë¹Ħ":2863,"ìĿ´ì½Ķ":2864,"ìķĺëįĺ":2865,"Ġíĸ¥":2866,"Ġê²°ë§ĲìĿ´":2867,"Ġìį":2868,"¬ëį":2869,"ì§Ħì§Ħ":2870,"ìŀ¥ëĤľ":2871,"ê°ľìĿ¸ìłģìľ¼ë¡ľ":2872,"Ġë¹Ħíķ´":2873,"Ġíķ´ëıĦ":2874,"Ġë³´ìĹ¬ì£¼":2875,"Ġ....":2876,"íı¬ìĬ¤íĦ°":2877,"Ġì¦Ĳê±°":2878,"Ġìĸ´ìĦ¤íĶĪ":2879,"ìĿĳ":2880,"¬ëł¤":2881,"ìĿ¸ë¬¼":2882,"Ġìĵ°ëłĪê¸°ìĺģíĻĶ":2883,"Ġì´ĪëĶ©":2884,"Ġë¬ĺ":2885,"ë§Īì§Ģë§īìĹĲ":2886,"Ġê·¸ëŁ¬ëĤĺ":2887,"ëıĭ":2888,"íĸĪê³ł":2889,"Ġêµ³":2890,"Ġë²Ĺ":2891,"ĠìĤ¬ëŀĮìĿĢ":2892,"Ġíķ©ëĭĪëĭ¤":2893,"ì¡°ê±´":2894,"ĠíŀĪ":2895,"ĠìķĦëĭĮê°Ģ":2896,"in":2897,"ë¯¼êµŃ":2898,"Ġì¡´ëĤĺ":2899,"ħëĭĪëĭ¤":2900,"ìľ¼ë©°":2901,"ìłĦìŁģ":2902,"ëĭĺìĿĺ":2903,"Ġìĭ¤íĻĶ":2904,"ìĺģíĻĶë¡ľ":2905,"Ġìĭ¤ìłľ":2906,"Ġì¤ĳê°ĦìĹĲ":2907,"íĺĳ":2908,"ìĦ¸ìĥģ":2909,"Ġìĺ¤ëŀľë§ĮìĹĲ":2910,"ëĭ¹íķľ":2911,"Ġìŀ¬ë¯¸ìĹĨëĬĶ":2912,"Īë¡":2913,"ëķĮë§Īëĭ¤":2914,"Ġë°°ìļ°ëĵ¤ìĿ´":2915,"íķĺì§ĢëıĦ":2916,"Ġë³¼ë§Įíķľ":2917,"ê±°ëĭ¤":2918,"ëª¨ëĵł":2919,"Ġëħ¸ìŀ¼":2920,"ì¿ł":2921,"Ġêº¼":2922,"ìĸ´ëł¸":2923,"ë¯¸êµŃ":2924,"Ġê²ĥìĿĢ":2925,"íĭ°ë¹Ħ":2926,"ĠìķĦê¹ĮìĽĢ":2927,"ĳ¸":2928,"ìŀĪê²Į":2929,"íŀĺ":2930,"ìĿ¼ê¹Į":2931,"ëįĺê°Ģ":2932,"ë¹µ":2933,"ë¦¿":2934,"ĠìĤ¬ë":2935,"ë´¤ìĸ´ìļĶ":2936,"ë§Įìľ¼ë¡ľëıĦ":2937,"ë¦¬ìĿĺ":2938,"ë³¼ë§Į":2939,"ëİ":2940,"ìľ¡":2941,"ê¹¨":2942,"ëĵľëĿ¼ë§Īë":2943,"ĠëĬ¥":2944,"íŀĪëł¤":2945,"ìķĦëıĦ":2946,"ĠíĴĢìĸ´":2947,"ë»Ķíķľ":2948,"ĠìĺģíĻĶê´ĢìĹĲìĦľ":2949,"íİ¸ìĿĺ":2950,"ëķĲ":2951,"ĠìĹ¬ë°°ìļ°":2952,"ĠíĮĲíĥĢì§Ģ":2953,"ê±į":2954,"ĠìĹĨëĦ¤":2955,"ìĹĪìľ¼ë©´":2956,"ì°©":2957,"ĠìĪĺê°Ģ":2958,"ìº":2959,"Ġêµīìŀ¥íŀĪ":2960,"ì¡°ì°¨":2961,"ìĸ´ì§ĢëĬĶ":2962,"ëĤ´ëĬĶ":2963,"ĠìĬ¤íĨłë¦¬ëĬĶ":2964,"ĠíĿ¥íĸī":2965,"ĠëıħíĬ¹":2966,"ĠìķĪë³":2967,"ìķĦë¬´ë¦¬":2968,"¥ľ":2969,"¬ìĺģ":2970,"íķĺê¸´":2971,"ë§ĮìĿĺ":2972,"ëłĪë":2973,"ê²ĥê°Ļëĭ¤":2974,"ìłľê°Ģ":2975,"Ġìĥģìĺģ":2976,"ë¦½ëĭĪëĭ¤":2977,"Ġê°ĳìŀĲê¸°":2978,"ĠíĥĦíĥĦ":2979,"Ġíķĺê²Į":2980,"Ġìļ´":2981,"ìłĢìĶ¨":2982,"ĠìĦłíĥĿ":2983,"Ġê¶Į":2984,"ĠëĦ¤ìĿ´ë²Ħ":2985,"ĠìĹĲë¡ľ":2986,"Ġì§Ħíĸī":2987,"Ġê°ĲìĦ±":2988,"Ġìĸ´ì©Į":2989,"Ġìĭľì²Ńë¥ł":2990,"ĠíļĮ":2991,"ë§ĮìĿ´":2992,"ê²ĥìĿĢ":2993,"ĠíķŃìĥģ":2994,"ĠìĪľê°Ħ":2995,"ë¿":2996,"Ġìĭľì¦Į":2997,"ĠìĤ¬ëŀĮëĵ¤ìĿĢ":2998,"Ġìŀ¬ë¯¸ìŀĪëĭ¤":2999,"Ġì¶©ë¶ĦíŀĪ":3000,"Īëĭ¤":3001,"ìĸ´ëĤĺ":3002,"Ġëĵł":3003,"Ġìĸ´ë¥¸":3004,"Ġê°ĢëĬĶ":3005,"Ġë¹Į":3006,"ìŀ¬ë¯¸ëıĦ":3007,"ĠëĲľëĭ¤":3008,"íķĺëĭ¤ê³ł":3009,"Ġê·¸ëħĢ":3010,"ì¤¬":3011,"ĠëĦĪ":3012,"ì²¨":3013,"Ġë§Įì¡±":3014,"ĠëĬĲê¼":3015,"ĠíķĦ":3016,"ëĭĺìĿ´":3017,"ì½¤":3018,"ĠíħĮ":3019,"íķĺìĹ¬":3020,"Ġê²ģ":3021,"ĠìĭľìłĪ":3022,"íĸĪìĬµëĭĪëĭ¤":3023,"Ġì¢ĭê²łëĭ¤":3024,"Ġì¢Ģë¹Ħ":3025,"ĠìĹīë§Ŀ":3026,"Ġìĸĺê¸°":3027,"ê³³":3028,"ìŀĪëĦ¤":3029,"Ġë³´ëĬĶëį°":3030,"ĠíĿĳ":3031,"\"\"\"\"\"\"\"":3032,"ëĤ´ìļ©ëıĦ":3033,"Ġë¶ĦìľĦê¸°":3034,"ìĹĺ":3035,"ëŀ¬":3036,"ë³į":3037,"Ġìī½":3038,".......":3039,"ìĭ¤íŀĪ":3040,"ĠìĿĺëıĦ":3041,"Ġë¨¸ë¦¬":3042,"ĠìĿ´ë²Ī":3043,"Ġê¸ī":3044,"íĶĦë¡ľ":3045,"ĠíĹ¤":3046,"ĠíĽĪ":3047,"ê°ķì¶Ķ":3048,"ëķľìĹĲ":3049,"ìĹĦì²Ń":3050,"Ġë¦¬ìĸ¼":3051,"íĢ":3052,"Ġìĵ´":3053,"ìĿ´ëĥĲ":3054,"ìļ°ëĬĶ":3055,"Ġìŀ¬ë¯¸ëĬĶ":3056,"Ġìŀĺë§Įëĵ¤":3057,"ĠëĪĪë":3058,"Ġíķ´ìķ¼":3059,"//":3060,"ì§Ģëĭ¤":3061,"ëł¬":3062,"ĠëĨĪ":3063,"íĿĲ":3064,"ì´Ŀ":3065,"ĠíĽĮë¥Ńíķľ":3066,"ìļ°ë¦¬ëĤĺëĿ¼":3067,"ĠíĻĶë©´":3068,"Ġë¯¿ê³ł":3069,"Ġìĸ´ì©Ķ":3070,"ĠìĥĪë¡ľìļ´":3071,"Ġê°Ķ":3072,"ìĭľê³ł":3073,"Ġì¢ĭëĦ¤ìļĶ":3074,"ĠìķĪíĥĢê¹Ŀ":3075,"ìĿ´íķĺ":3076,"ĠìĺģíĻĶìĿ¸":3077,"Ġê·¸ê²Į":3078,"ĠëĤĺìĿĺ":3079,"Ġê²Ģ":3080,"íķĺëĬĶê±°":3081,"Ġëª¨ë¥´ê³ł":3082,"ë°°ìļ°ëĵ¤ìĿĺ":3083,"Ġë¹¨ë¦¬":3084,"ĠM":3085,"Ġìĸ´ëł¤":3086,"ìłľë°ľ":3087,"Ġìŀ¬ë°ĮëĦ¤ìļĶ":3088,"ë³¸ëĭ¤":3089,"ì¢ĭìķĦìļĶ":3090,"ĠìĤ´ìĿ¸":3091,"ìĺĽëĤł":3092,"ìĺ¤ëĬĶ":3093,"ìĦ¸ê³Ħ":3094,"ìłĢëıĦ":3095,"ĠìķĦëĭĪë":3096,"Ġì°¸ê³ł":3097,"ë´Ĳìķ¼":3098,"ìĬ¤ëŁ°":3099,"ĠìŀĪìĿĮ":3100,"ê·ł":3101,"ëħĦìĹĲ":3102,"ĠëŃĲê°Ģ":3103,"Ġíŀĺëĵł":3104,"ëª°ìŀħ":3105,"Ġì§Ŀ":3106,"ìĺģíĻĶëıĦ":3107,"ĠìĹ¬ìłĦ":3108,"ĠëŃĲëĥĲ":3109,"Ġë¬»":3110,"íĺķìłģìĿ¸":3111,"ĠìķĦìī¬ìļ´":3112,"ĠìķĪíĥĢê¹Į":3113,"ê·¸ëŀ¨":3114,"ĠO":3115,"ìĭľëĬĶ":3116,"ë²Īë":3117,"ê°Ħë§ĮìĹĲ":3118,"Ġì§Ħìłķíķľ":3119,"Ġë§ĪìĿ´":3120,"ëĨĴ":3121,"ê¿Ģìŀ¼":3122,"ìµľìķħìĿĺ":3123,"ìĩ¼":3124,"ĳìĹĲ":3125,"Ġë§¨":3126,"ëĤ´ê³ł":3127,"Ġìľ¼":3128,"Ġê´ľ":3129,"Ġê²ĥìĿ´ëĭ¤":3130,"íĶĦëĭ¤":3131,"Ġê·¸ëķĮ":3132,"ê²łëĦ¤":3133,"ĠëĮĢëĭ¨íķľ":3134,"ĠëŁ¬":3135,"ìĿ´ë©´":3136,"ìĸ´ë¡ľ":3137,"ìŀĲìĿĺ":3138,"OOO":3139,"Ġë©ĭìŀĪ":3140,"Ġíģ¬":3141,"Ġìĸ´ëĶĶìĦľ":3142,"ìĹĪëĦ¤ìļĶ":3143,"ĠìĨĮìĦ¤":3144,"ëĲĺìĸ´":3145,"Ħ¤ìļĶ":3146,"ĠíĢ":3147,"ĠìŀĪëĭ¤ëĬĶ":3148,"ĠìĿ´ìĺģíĻĶë¥¼":3149,"ĠìĬ¹":3150,"Ġíķľìĭ¬":3151,"íķ¨ê³¼":3152,"ìłľìŀĳ":3153,"Ġê°Ĳìĥģ":3154,"ìĻł":3155,"ê·¸ëŁ¬":3156,"Ġë¨¹ë¨¹":3157,"íĦ´":3158,"ìĬ¤ë¥¼":3159,"ĠëĦ£":3160,"Ġë´¤ëĦ¤ìļĶ":3161,"ĠìĨĮì¤ĳ":3162,"ĠëŃĲì§Ģ":3163,"ìĤ¬ëŀĮìĿ´":3164,"ĠìĦ±ìļ°":3165,"Ġëĭ¹ìĭł":3166,"ìĬ¤íĨłë¦¬ê°Ģ":3167,"íıīê°Ģ":3168,"ĠíĤ¬ë§ģíĥĢìŀĦìļ©":3169,"ĠìķĪëĲľëĭ¤":3170,"¬ê¸Ī":3171,"ĠìĹĨìĿĦ":3172,"ĠìĹĨëĦ¤ìļĶ":3173,"ë²Į":3174,"ĠìĨ¡":3175,"ĠëĲĺìĸ´":3176,"ĠëĬĲëģ¼ê²Į":3177,"Ġê°ľìĹ°ìĦ±":3178,"Ġì°Į":3179,"ìĿ´ë¸Ķ":3180,"ê³łìĭ¶":3181,"ëłĮ":3182,"ê²ĥìĿ´ëĭ¤":3183,"ĠìķĮëł¤":3184,"Ġíıīë²Ķ":3185,"ëľ¨":3186,"ìłķìĭł":3187,"ìħĪ":3188,"ë¦¬ë¡ľ":3189,"ìĽĢìĿ´":3190,"Ġë§Ŀìŀĳ":3191,"Ġë¬¼ë¡ł":3192,"ìºĲë¦ŃíĦ°":3193,"ĠãĦ·ãĦ·":3194,"¬ëŀĳ":3195,"Ġê°ĢëĬ¥":3196,"ĠëŃĲìķ¼":3197,"Ġíİ¸ì§ĳ":3198,"Ġíľ´":3199,"Ġë°Ģ":3200,"ìĹĨìĸ´":3201,"Ġíķĺë©´":3202,"ìķłëĭĪ":3203,"Ġê´ĢëŀĮ":3204,"ëŀĻ":3205,"Ġìľ¤":3206,"ìĺĢëĬĶëį°":3207,"ãĦ¹":3208,"íĹĲ":3209,"ĠìłĲìłĲ":3210,"ĠìļĶìĨĮ":3211,"Ġë§ĮìłĲ":3212,"íŀĮ":3213,"ĠìŀĲê·¹":3214,"ëħ¸ëŀĺ":3215,"Ġ-_-":3216,"Ġìĺ¤ê¸Ģê±°":3217,"ST":3218,"ëĢ":3219,"ìª½":3220,"Ġëĥ":3221,"ìŀĲëĵ¤":3222,"Ġì¤ĺ":3223,"ìĸ´ëĸ»ê²Į":3224,"Ġm":3225,"ìĦ¼":3226,"íķĺëĬĶê²Į":3227,"ãħĭãħĭãħĭãħĭãħĭ":3228,"Ġë°ĶëĿ¼":3229,"ìĺĪìĤ°":3230,"ì»¬":3231,"ª¨":3232,"íĻĶê°Ģ":3233,"Ġê¹Ķ":3234,"Ġ200":3235,"ĠìĤ¬ëŀĳìĿĦ":3236,"Ġì£½ëĬĶ":3237,"Ġë³ĦìłĲ":3238,"Ġëĵ¯íķľ":3239,"--":3240,"12":3241,"ê¸°ìĹĶ":3242,"Ġë²ķ":3243,"Ġë§Įëĵ¤ìĹĪëĭ¤":3244,"ì©Į":3245,"ĠëĤ«ëĭ¤":3246,"Ġì¿":3247,"Ġë½":3248,"ìł¤":3249,"ĠëĤĺìģľ":3250,"Ġì¢ĭìĿĮ":3251,"ĠìĥĪ":3252,"Ġìŀ¬ë°ĮìĹĪëĭ¤":3253,"ë¹¼":3254,"ìĭ¬ìĿĦ":3255,"Ġëª¨ë¥´ëĬĶ":3256,"ĠìłĦê°ľê°Ģ":3257,"ĠìĭĿìĥģ":3258,"ìį":3259,"ìĿ´ëĶ´":3260,"íķľëĵ¯":3261,"íİĳ":3262,"ĠíıīìłĲìĿĢ":3263,"ìķĪíķĺê³ł":3264,"ĠìŀħëĭĪëĭ¤":3265,"Ġë§¥":3266,"ĠëģĿëĤ´":3267,"Ġìŀ¬ë¯¸ìŀĪìĸ´ìļĶ":3268,"ê°ĻìĿĢëį°":3269,"ìµľê³łëĭ¤":3270,"ĠëĲĲ":3271,"ĠìĤ¬ëĿ¼":3272,"ìĹĨëĦ¤":3273,"ĠëĤĺìĿ´":3274,"íĴĭ":3275,"ĠìŀĲê¾¸":3276,"ĠìĿ´ìķ¼ê¸°ë¥¼":3277,"ĠíĿ¥ë¯¸ì§Ħì§Ħ":3278,"ĠìĶ¨":3279,"ìİ":3280,"ìı":3281,"ë³´ìĦ¸ìļĶ":3282,"ĠìĹ¬ì£¼":3283,"ëŀ«":3284,"ĠìķĮìķĺëĭ¤":3285,"íıĲ":3286,"ĠíĭĢ":3287,"Ġ!!":3288,"Ġìĺ¤íŀĪëł¤":3289,"ê»ı":3290,"Ġê¼¬":3291,"ìĽłëįĺ":3292,"Ġë²Ķì£Ħ":3293,"ĠìĨĮë¦¬":3294,"Ġìĭ«ìĸ´":3295,"ëŀĦê¹Į":3296,"ìķĪëĲĺëĬĶ":3297,"ĠëĮĵê¸Ģ":3298,"ëĭ¿":3299,"ëĤĺë©´":3300,"ìķĦìķĦ":3301,"ãħłãħłãħł":3302,"ìĭ¬ìĿ´":3303,"Ġë§Įëĵ¤ì§Ģ":3304,"ìĭĿìĿ´":3305,"Ġì¢ĭìķĺìĸ´ìļĶ":3306,"ĠíĿĺëŁ¬":3307,"âĢ":3308,"ì°¾":3309,"Ġì°½":3310,"Ġë¯¸íĻĶ":3311,"Ġãħħ":3312,"ĠìĿ´ë¦¬":3313,"ìĸ´ìļ¸":3314,"ĠëĤĺëĿ¼":3315,"Ġì§Ħì§Ģ":3316,"íİ¸ìĿĦ":3317,"ĠìĽĥê¸´":3318,"ë©ĶëĿ¼":3319,"Ġëª¨ìĬµìĿ´":3320,"ìĹĪëĦ¤":3321,"ĠìķĮìķĺëĬĶëį°":3322,"ê¼¬":3323,"êµ¿êµ¿":3324,"ë³´ëĬĶëį°":3325,"ĠìĺģìĽħ":3326,"ë´ĲìĦľ":3327,"ĠìĦ¤ëªħ":3328,"ìºĲìĬ¤íĮħ":3329,"Ġë£¨":3330,"Ġëĭ¤íĸī":3331,"ìĦ¸ê°Ģ":3332,"ë²ĪìĿĦ":3333,"Ġìŀ¥ë©´ìĿĢ":3334,"Ġì£¼ìĿ¸ê³µìĿ´":3335,"êµ¬ëĵ¤":3336,"ì§Īë":3337,"ĠìłĬ":3338,"ìķĦë¨¹":3339,"Ġê²¨":3340,"ìĸĺ":3341,"ìĨĮìĦ¤":3342,"Ġë§Ĳê³ł":3343,"ëĺ¥":3344,"Ġë©įì²Ń":3345,"Ġa":3346,"Ġê»":3347,"Ġê·¸ëŁ´":3348,"ìĥģìĿĦ":3349,"ìī½":3350,"Ġìĭłê¸°":3351,"ĠìĹĦì²ŃëĤľ":3352,"ĠìķĦë¹ł":3353,"ìłĲì¤Ģ":3354,"ĠìĦ±ë£¡":3355,"Ġë©ĶìĦ¸":3356,"he":3357,"Ġê¾":3358,"ëª½":3359,"Ġë¬´ì¡°ê±´":3360,"Ġì¤ĳìĹĲ":3361,"ìĹ°ê¸°ëıĦ":3362,"ĠíĸīëıĻ":3363,"ìĸ´ëĶĶ":3364,"Ġì§§":3365,"ĠìłĦê¸°":3366,"íĶĦê³ł":3367,"Ġë³´ìĹ¬ì¤Ģ":3368,"ìĭ±":3369,"ë§Įíķĺë©´":3370,"ìĬ¤ë¡ľ":3371,"ê·¸ìłĢ":3372,"ì¤ĦìķĮ":3373,"ì¹ľêµ¬":3374,"ĠíĻĶìĿ´íĮħ":3375,"Ġ90":3376,"ĠìĺģíĻĶìĺĢìĬµëĭĪëĭ¤":3377,"¶Ħ":3378,"Ġì¥":3379,"ê¸°ëĭ¤":3380,"ìĭľì¦Į":3381,"íĤ¹":3382,"ĠìĹ°ì¶ľëł¥":3383,"ê°ĲëıħìĿĺ":3384,"ĠìĬ¤íĥĢìĿ¼":3385,"ìŀł":3386,"ìķĻ":3387,"ìĸ´ìĿ´":3388,"ë¦¬ìķĦ":3389,"Ġê·¸ë¦¼":3390,"ĠëĮĢìŀĳ":3391,"Ġì£½ìĿĮ":3392,"?)":3393,"ë½":3394,"íķĺê²ł":3395,"ëĤĺìĿ´":3396,"ë¦¬ê²Į":3397,"íĮĶ":3398,"ìĨĮíķľ":3399,"Ġëģ¼":3400,"Ĵ·":3401,"Ġë®¤":3402,"ìĿ¸ìĿĦ":3403,"Ġê·¸ëĭ¥":3404,"ĠíķĺëĬĶëį°":3405,"Ġìĸ´ë¦´":3406,"ĠìŀĳíĴĪìĿ´":3407,"Ġëħ¸ëł¥":3408,"ĠìŀĬíĺĢ":3409,"200":3410,"ìłķìĿĦ":3411,"Ġê°ĻëĦ¤ìļĶ":3412,"Ġë©´":3413,"Ġìľłë¨¸":3414,"ë¦¬ëĿ¼":3415,"ìŀ¬ë°ĮìĿĮ":3416,"Ġê´Ģê³Ħ":3417,"ĠìŀĶìŀĶíķľ":3418,"ĠíĿ¬ë§Ŀ":3419,"ê¸Īë´ĲëıĦ":3420,"ĠìĿ´ìĸ´":3421,"Ġë§Īë¬´":3422,"ìĿ¸ê±°":3423,"Ġëįķ":3424,"ìĤ¬ëĬĶ":3425,"Ġíķ©":3426,"Ġê²°íĺ¼":3427,"Ġì¢ĭìķĺê³ł":3428,"ĠìĺģíĻĶìĹĲìĦľ":3429,"ë§Ĳë¡ľ":3430,"ìŀĲëĬĶ":3431,"ìŀĪìĸ´ìļĶ":3432,"íĥģ":3433,"Ġê°ĢëĵĿ":3434,"ì¹ĺê²Į":3435,"ĠíĹĲë¦¬":3436,"ĠìĽĥê²¨":3437,"ë°©ìĨ¡":3438,"Ġë¬´ìĦľìļ´":3439,"ĩ´":3440,"Ġë§Įíģ¼":3441,"ìĹ¬ì£¼":3442,"ë¶ĦìĿ´":3443,"Ġì°¸ìĭł":3444,"ĠëıĪì£¼ê³ł":3445,"ĠìķĦë¬´ê²ĥëıĦ":3446,"©ĶìĿ´íģ¬":3447,"ìĿ¸ìĿĢ":3448,"Ġëª»ë³´":3449,"ìĤ¬ëŀĮëĵ¤":3450,"íķĺë©´ìĦľëıĦ":3451,"Ġê·¸ëł¤":3452,"ê·¸ëĿ¼":3453,"Ġ19":3454,"Ġì¢ĭìķĺìĬµëĭĪëĭ¤":3455,"ĠëĺĲíķľ":3456,"ĠíĬ¹ìľłìĿĺ":3457,"ĠíĽĪíĽĪ":3458,"íī":3459,"íķľê±´":3460,"ìĭľìŀĳ":3461,"Ġìĺ¬":3462,"ìĺĢìĬµëĭĪëĭ¤":3463,"ĠìĬ¤íĨłë¦¬ìĹĲ":3464,"ê¸´ìŀ¥ê°Ĳ":3465,"ĠìķĦëĭĪì§Ģë§Į":3466,"ìŀ¬ë¯¸ìŀĪê²Į":3467,"Ġìĸµì§Ģë¡ľ":3468,"Ġì¦Ĳê²ģ":3469,"ê±¸ê¹Į":3470,"ë´ĲëĿ¼":3471,"Ġì½Ķë©ĶëĶĶ":3472,"ì½ĺ":3473,"ĠëĨĢëĿ¼":3474,"ĠëĿ¼ëĬĶ":3475,"ìķĦëĭĪê³ł":3476,"Ġë¡ľë§¨íĭ±":3477,"Ġë³ĳë§Ľ":3478,"ĠTV":3479,"ĠìĿ´ëĶ°":3480,"íķ´ì£¼":3481,"ìŀĲë¥¼":3482,"ë¶ĦìĹĲ":3483,"ëĦĪë¬´ëĦĪë¬´":3484,"ĠìĻĦìĦ±ëıĦ":3485,"Ġê·¸ëłĩê³ł":3486,"ĠìĻĦë²½íķľ":3487,"ëĮ":3488,"ìĹ¼":3489,"ìłĲì¤Ģëĭ¤":3490,"ĠëĤĺìģĺ":3491,"Ġì§Ħìĭ¤":3492,"ë¥´ê³ł":3493,"Ġìķ¡ìħĺëıĦ":3494,"Ġëª¨ìĬµìĿĦ":3495,"Ġê¿Ģìŀ¼":3496,"²Ħ":3497,"ì¦Īë":3498,"ĠìķĬìĿĦ":3499,"ĠìĥĿê°ģë³´ëĭ¤":3500,"ìķłëĵ¤":3501,"ëŃĲìķ¼":3502,"âĺħ":3503,"ĠìķĦëĭĲê¹Į":3504,"~^^":3505,"ìŀĪëĬĶëį°":3506,"ĠìĥĿê°ģíķľëĭ¤":3507,"Ġëħ¸ì¶ľ":3508,"Ġê¸°ëĮĢíķĺê³ł":3509,"ĠìĦ±ìŀ¥":3510,"ëĵ±íķĻêµĲ":3511,"Ġê¹ĬìĿĢ":3512,"íĻĶë¥¼":3513,"ëĵľê°Ģ":3514,"ê°ĲìĿĦ":3515,"ĠëıĦìłĢíŀĪ":3516,"Ġë³µìĪĺ":3517,"ë»Ĳ":3518,"ëĳĺ":3519,"ê³łíİ¸":3520,"íķĺëįĺ":3521,"ê³¼ëĬĶ":3522,"Ġë¶ģ":3523,"ĠìķĬìķĺëĭ¤":3524,"ìĺĢëįĺ":3525,"ãħİãħİãħİ":3526,"Ġê°ĲëıħìĿĢ":3527,"ìł¸ìĦľ":3528,"ëĤ¬ëĭ¤":3529,"ĠíĽĦë°ĺë¶Ģ":3530,"ĠìĿ¸ìłķ":3531,"Ġë§Ĳíķĺê³ł":3532,"ĠíĮĶ":3533,"Ġíıīë¡łê°Ģ":3534,"Ġê·¸ëŀĺíĶ½":3535,"Ġë¶Ģë¶ĦìĿ´":3536,"ī´":3537,"ìĿ´ìĹĲìļĶ":3538,"ĠìĺģíĻĶì¤ĳìĹĲ":3539,"ĠìķĦë²Ħì§Ģ":3540,"íķĺëĬĶì§Ģ":3541,"ëł¤ë©´":3542,"Ġë³¸ëĭ¤":3543,"ì¢ĭê³ł":3544,"ĠíĻįì½©":3545,"íķľëĭ¤ëĬĶ":3546,"ëĤĺìĻĶ":3547,"ĠëįĶëŁ½ê²Į":3548,"ĠìķĪë§ŀ":3549,"Ġëª»íķĺê³ł":3550,"Ġìľłëªħ":3551,"ìģ¨":3552,"ĠëıĮëł¤":3553,"Ġê³¨":3554,"ĠëĶ°ëľ»íķľ":3555,"Ġë¹ĦìĬ·íķľ":3556,"ìķĦë¦Ħëĭ¤ìļ´":3557,"ëĭ«":3558,"ìĽ¨":3559,"ìĹĪëĤĺ":3560,"ĠìķĬìĿĮ":3561,"Ġìłľê°Ģ":3562,"Ġíİĺ":3563,"ì§Ģë£¨íķĺê³ł":3564,"Ġëľ¬ê¸Ī":3565,"ì§Ģëª»":3566,"¬ëĵ¤":3567,"ĠìĺģíĻĶìĿ´ëĭ¤":3568,"Ġìłĳ":3569,"ìŀ¥ìĿ´":3570,"ĠìķĪëĤĺìĺ¤":3571,"ë¯¿":3572,"Ġì´Į":3573,"Ġë¶Ħëªħ":3574,"Ġê³¼ê±°":3575,"or":3576,"ìłĪëĮĢ":3577,"ì§ĢëĦ¤ìļĶ":3578,"íķ´ì£¼ëĬĶ":3579,"ëģĮ":3580,"íĿĳ":3581,"íĹ¤":3582,"ĠìĹ°ì¶ľìĿ´":3583,"ìĪľê°Ħ":3584,"Ġë¨¼ìłĢ":3585,"Ģë¡ľ":3586,"ìĹ¿":3587,"ë¶Īë":3588,"ìĪĺìŀĪëĬĶ":3589,"ìĿ¼ë¿Ĳ":3590,"ĠìŀĺìĥĿ":3591,"ë§¹":3592,"ìĪĺëıĦ":3593,"ĠìĺĪë":3594,"ì¶ķ":3595,"íĸĪìľ¼ë©´":3596,"Ġê°ĻìĬµëĭĪëĭ¤":3597,"ëįĶêµ°ìļĶ":3598,"Ġíķ´ì£¼ëĬĶ":3599,"Ġê±°ì§Ģ":3600,"Ġë°Ķë³´":3601,"ëĸ¨ìĸ´":3602,"Ġì´¬ìĺģ":3603,"ëĭµëĭµ":3604,"ĠìĦľë¡ľ":3605,"ê¸Īë³´":3606,"ìŀĪìĿĮ":3607,"ĠìĬĪ":3608,"ĠìķĮê²ł":3609,"Ġë¹Ī":3610,"ëģĿê¹Įì§Ģ":3611,"ĠìķĦëĭĪë©´":3612,"ê°ĢìļĶ":3613,"ëĵłëĭ¤":3614,"ĠìĤ¬ê±´":3615,"ĠëŃĶì§Ģ":3616,"ĠëĤĺìĺ¨ëĭ¤":3617,"ìĹĦë§Ī":3618,"ĠSF":3619,"ìŀī":3620,"ìĥĪëģ¼":3621,"íķłëĵ¯":3622,"ìĦ±ìķł":3623,"Ġë°°ìļ°ê°Ģ":3624,"ìĹ°ê¸°ê°Ģ":3625,"ìłĪíķľ":3626,"ëĲĲ":3627,"Ġãħľ":3628,"..?":3629,"ëĮĢìĤ¬":3630,"íģ°":3631,"ëįĶë¹Ļ":3632,"ìĶĢ":3633,"Ġê¹ľ":3634,"ìĬ¤íĨłë¦¬ëıĦ":3635,"ĠíĶ¼íķ´":3636,"íĬ¹íŀĪ":3637,"Īë²½":3638,"ĠëŁ¬ë":3639,"ìĿĺë¯¸":3640,"ë°ĭ":3641,"ìłĲì§ľë¦¬":3642,"ĠìŀĪìĹĪëįĺ":3643,"ìĺ¤ëŀĺ":3644,"ëĤ´ìļĶ":3645,"ëĶ¸":3646,"ĠëĤ¨ìķĦ":3647,"ì§ĢëıĦìķĬ":3648,"ĠìĿ¸ê°ĦìĿĺ":3649,"ëĨĵìĿĢ":3650,"ĠìĤ¶ìĿĦ":3651,"ĠíĶĦëŀĳìĬ¤":3652,"ìĬ¤ë¦´ëŁ¬":3653,"Ģëĭ¤":3654,"ĠìĺģíĻĶë³´ëĭ¤":3655,"ë§ĪìĿ´":3656,"ì¶°":3657,"Ġë°ĶëŀĮ":3658,"ĠìĺģìĽĲ":3659,"Ġì¢ĭìķĺìĿĮ":3660,"ĠëĬĲê»´ì§ĢëĬĶ":3661,"Ġë¬´ìĹĩë³´ëĭ¤":3662,"ëĤĺìĺ¨ëĭ¤":3663,"ìĸ´ìĦ¤":3664,"ĠëĤŃë¹Ħ":3665,"ë§Įìľ¼ë¡ľ":3666,"ëĮĢëĭ¨":3667,"ìķĺìĸ´ìļĶ":3668,"ë¬ĺ":3669,"ĠìłĢì§Ī":3670,"Ġì¢ĭìĿĢìĺģíĻĶ":3671,"Ġëª°ëŀĲ":3672,"Ġíģ¬ë¦¬ìĬ¤":3673,"Ġì§Ģê¸ĪëıĦ":3674,"ĠìĿ´ìĥģíķľ":3675,"Ġëĭ¤ìļ´ë°Ľ":3676,"Ġãħĭãħĭãħĭãħĭãħĭãħĭãħĭãħĭ":3677,"íķ´ë³´":3678,"ìĬ¤ëĬĶ":3679,"ìĺ¤ê¸Ģ":3680,"Ġì§ĢëĤľ":3681,"ìĦ±ë£¡":3682,"íķĺëĭ¤ëĬĶ":3683,"ìĨĮëħĦ":3684,"ë¦¬ëĵ¤":3685,"íĹĮ":3686,"ìĤ¬ëĵ¤":3687,"Ġd":3688,"ĠìĿ´ìĺģíĻĶëĬĶ":3689,"Ġê·¸ìĿĺ":3690,"Ġëĭ¤ê°Ģ":3691,"ĠìłĦìĦ¤":3692,"Ġê°Ĳëıħëĭĺ":3693,"íĿł":3694,"ìĸ¸ìłľ":3695,"Ġì¦Ŀ":3696,"Ġê²½ì°°":3697,"Ġë¶Ģì¡±íķľ":3698,"Ġì§Īì§Ī":3699,"Ġì²ľìŀ¬":3700,"ĠíĻĺìĥģ":3701,"ëĭĿíĥĢìŀĦ":3702,"ĠìĻľìĿ´ë¦¬":3703,"ìĸ´ë¦´ëķĮ":3704,"¹Ľ":3705,"ëĭ¤íģĲ":3706,"ĠëĤĺë¨¸":3707,"ĠíĸĪëįĺ":3708,"ëª¨ìĬµ":3709,"Ġê·¸ëŁ°ëį°":3710,"ìĬ¤ëŁ½ê²Į":3711,"80":3712,"ìĭľì¼ľ":3713,"Ġìĸ»":3714,"ĠìĦ±ê³µ":3715,"Ġë§ĪìĿĮìĿĦ":3716,"ĠìĿ¸ìĥģê¹Ĭ":3717,"tv":3718,"ľĺ":3719,"ë¦¬ëĭ¤":3720,"Ġì§ĵ":3721,"ìĤ¶":3722,"íı°":3723,"Ġë¹Ħì¶Ķ":3724,"ìĭ¬íŀĪ":3725,"Ġë¯¸ìĨĮ":3726,"ĠìĹŃëĮĢ":3727,"Ġì¢ĭìķĺëĬĶëį°":3728,"ìĽĢìĿĦ":3729,"ĠíĸĪì§Ģë§Į":3730,"ĠìĿ´ìķ¼ê¸°ê°Ģ":3731,"êµ¬ëł¤":3732,"Ġëŀ":3733,"ìĦľëĬĶ":3734,"ìĸ´ëĿ¼":3735,"Ġìĸ´ëłµ":3736,"ìłĢëŁŃ":3737,"ê³ĦìĨį":3738,"ĠìĻĢëĭ¿":3739,"Ġ:":3740,"íķĺìĦ¸ìļĶ":3741,"ê¸°ë¡ľ":3742,"ë¦¬ìĹĲ":3743,"ìķĦëĿ¼":3744,"ëĦ¤ìĹ¬":3745,"ìĹĪìĿĦ":3746,"Ġë¶Ģëª¨":3747,"ëĵ±íķĻìĥĿ":3748,"ĠìĹ¬ëŁ¬":3749,"Ġëĵłëĭ¤":3750,"íĺģ":3751,"ëıĦëĬĶ":3752,"ëĤĺê°Ģ":3753,"ìĬĪ":3754,"ìķĦê°Ģ":3755,"ê¹Ķ":3756,"Ġíķľê³Ħ":3757,"ĠëĵľëĬĶ":3758,"ë¹ĦëĶĶìĺ¤":3759,"Ġì¡°ìĹ°":3760,"ĠëĤĺìĺ¤ê³ł":3761,"ĠëªħìŀĳìĿ´ëĭ¤":3762,"ĠìķĦëĭĮëį°":3763,"ĠíĹĪìĪł":3764,"ìĻ¸ë¡ľ":3765,"ĠíĶĦë¡ľê·¸ëŀ¨":3766,"Ĳë§ģ":3767,"ìĿ´ìľł":3768,"ìķĺìĬµëĭĪëĭ¤":3769,"Ġíķ´ì¤Ģ":3770,"Ġìĭ¤íĮ¨":3771,"ĠëĦĺìĸ´":3772,"Ġì²ĺìĿĮìĿ´ëĭ¤":3773,"ë°°ê²½":3774,"©°":3775,"ĠìĺģíĻĶì§Ģë§Į":3776,"ëĮĢê°Ģ":3777,"Ġê°ĻìĿĮ":3778,"Ġì¶¤":3779,"Ġë©Ģ":3780,"ĠëıĪìĿ´":3781,"ì§ĢìķĬëĬĶ":3782,"ì¡´ëĤĺ":3783,"Ġ;;":3784,"ë¦¬ëıĦ":3785,"ìĹ¬ì£¼ìĿ¸ê³µ":3786,"ĠíĿł":3787,"ë¦¬ë©´":3788,"Ġë§ŀëĬĶ":3789,"ê°ĪìĪĺë¡Ŀ":3790,"ê·¹ìŀ¥ìĹĲìĦľ":3791,"Ġost":3792,"ĠëĴ·":3793,"ìĿ´ìĿĺ":3794,"ëĤĺìĺ´":3795,"ìĦľìķ¼":3796,"ëģĪ":3797,"ĠëĵľëĿ¼ë§Īê°Ģ":3798,"ëªħìĿ´":3799,"ĠëıĻíĻĶ":3800,"ìķĦì§ģëıĦ":3801,"Ħë¦¬íĭ°":3802,"ìĿ´ìĬ¤":3803,"ìķĦëĤĺ":3804,"ìŀ¬ë¯¸ìĹĨìĿĮ":3805,"ĠìĽĲëŀĺ":3806,"Ġãħİãħİãħİ":3807,"Ġê³³":3808,"Ġëª©ìĨĮë¦¬":3809,"(?)":3810,"14":3811,"ĠìķĦëĬĶ":3812,"ë§ĲëıĦ":3813,"ìĹ°ê±¸":3814,"Ġì§Ģë£¨íķ´":3815,"ë³´ê³łìĭ¶":3816,"ĠìĤ¬ëŀĳìĿ´":3817,"ë°ľìĿ´":3818,"íĽĦë°ĺ":3819,"íķĺê¸°ë§Į":3820,"ĠìĽĲìŀĳìĿĦ":3821,"Ġì²Ńì¶ĺ":3822,"ëŁŃìłĢëŁŃ":3823,"¥ĺ":3824,"ĠìĦ¬":3825,"ĠìŀĲìľł":3826,"Ġë³´ê³łìĭ¶ìĿĢ":3827,"Ġíķ´íĶ¼":3828,"Ġê°ĲíĥĦ":3829,"ĠíĶĮ":3830,"ĠëĤľëĭ¤":3831,"Ġê²ĮìŀĦ":3832,"Ġê°Ħë§ĮìĹĲ":3833,"íĳ¸":3834,"ĠìĿ´ëŁ°ê±°":3835,"Ġë¯¸ëŀĺ":3836,"Ġìŀ¬ë¯¸ìĹĨê³ł":3837,"ëŁ½ëĭ¤":3838,"ìĭĿìľ¼ë¡ľ":3839,"Ġëľ¨":3840,"ĠëĵľëĿ¼ë§Īë¥¼":3841,"ëıĦê°Ģ":3842,"Ġë§ĪëĿ¼":3843,"ë§ĮëĵľëĬĶ":3844,"ìĺ¤ë¹ł":3845,"ĠìĬ¤ì¼Ģ":3846,"ìĦ±ìĿĢ":3847,"ĠìĹ°ê¸°ìĹĲ":3848,"ĠìĽĮ":3849,"Ġíķ´ì£¼":3850,"íħĶ":3851,"ê´Ģê°Ŀ":3852,"ì¶Ķìĸµ":3853,"ëĶ°ëľ»":3854,"Ġìł¤":3855,"ëĵ¤ë§Į":3856,"Ġë©Ķìĭľ":3857,"Ġìķŀìľ¼ë¡ľ":3858,"Ġì·¨íĸ¥":3859,"ëļ±":3860,"ëĩĮ":3861,"Ġë¶Ļ":3862,"íĴĢ":3863,"ìĺĢìĸ´ìļĶ":3864,"ë©´ìĦľëıĦ":3865,"ĠìĿ¼ìĸ´":3866,"Ġê³łë¯¼":3867,"Ġë°ĶëĢ":3868,"Ġì²ĺìĿĮë¶ĢíĦ°":3869,"ìĥĿê°ģë³´ëĭ¤":3870,"ĠëĪĪìĿĦ":3871,"Ġëĸ¨ìĸ´ì§ĢëĬĶ":3872,"Ġë¶Īë¥ľ":3873,"Ġíį¼":3874,"ĠìĿĳ":3875,"ĠìĿ´íķĺ":3876,"ê±°ëĥĲ":3877,"ìĹĨìĸ´ìĦľ":3878,"ì¦Ĳ":3879,"Ġìŀĺë§Įëĵł":3880,"Ġê·Ģìĭł":3881,"ĠìĨĮìŀ¬ë¥¼":3882,"ĠD":3883,"Ġë³´ìĿ´ëĬĶ":3884,"ë°¥":3885,"ìĭľì²Ń":3886,"ê·¸ëłĩ":3887,"ĠìłĦë¬¸":3888,"ë¬´ìĦŃ":3889,"Ġê°ĲìłķìĿ´":3890,"Ġëħ¼":3891,"ĠìĿ´ìľłê°Ģ":3892,"Ġëļ":3893,"ë§¥":3894,"ìĥ¤":3895,"ìĻĢìĦľ":3896,"íĸĪìĿĦ":3897,"ĠëĬĻ":3898,"ĠëĤ¨ëĬĶëĭ¤":3899,"ĠìĬ¤íĨłë¦¬ìĻĢ":3900,"Ġë¯¸ìķĪ":3901,"ĠìķĪë´¤":3902,"Ġê³µíı¬ë":3903,"Ġë³´ëĬĶê²Į":3904,"ĠìķĦê¹ĮìĽĮ":3905,"ĠëĪĪìĿ´":3906,"Ġì°įìĿĢ":3907,"ê²Łëĭ¤":3908,"90":3909,"ë©ĶìĿ´":3910,"ĠìķĦë§Ī":3911,"Ġìĸ´ì°Į":3912,"ĠëģĬ":3913,"ë¹Ħê°Ģ":3914,"ĠëĮĢíķľë¯¼êµŃ":3915,"ĠëĪĦêµ°":3916,"Ġë¡":3917,"ê°Ģìŀ¥":3918,"ëĵ¤ê³ł":3919,"ìķĦë²Ħì§Ģ":3920,"ĠëĤĺìĦľ":3921,"ëł¤ëĭ¤":3922,"ĠìĻľìĿ´ëłĩê²Į":3923,"ĠìĤ¬ëŀĮìĿĦ":3924,"ĠíķĺëĤĺíķĺëĤĺ":3925,"Ġê·¸ëŁ°ê°Ģ":3926,"ëŃĲì§Ģ":3927,"ĠìŀĪëĭ¤ë©´":3928,"Ġìľłì¹ĺíķľ":3929,"ìŀ¬ë¯¸ìŀĪìĸ´ìļĶ":3930,"ĠìĹ¬ëŁ¬ë":3931,"ĠíĨµíķ´":3932,"¬ë¡ľ":3933,"³´ëĭ¤":3934,"ĠìĿ´ëŀĺ":3935,"ìľ¼ë¡ł":3936,"Ġê¸Ī":3937,"ì¤ĳêµŃ":3938,"ìłĢëĬĶ":3939,"Ġë§¤ëł¥ìĿ´":3940,"ëĳ¥":3941,"Ġë¦¬ë©ĶìĿ´íģ¬":3942,"Ġê°ĲìĤ¬íķ©ëĭĪëĭ¤":3943,"Ġ+":3944,"ëĭ¤ì§Ģ":3945,"ëĬĶê°Ģ":3946,"ìĺģíĻĶëĿ¼":3947,"ìĺģíĻĶëĿ¼ê³ł":3948,"Ġê°ĢìĦľ":3949,"ìĹ°ê¸°ëł¥":3950,"ĠíĻĶê°Ģ":3951,"Ġì¤Ħê±°ë¦¬":3952,"Ġìłģëĭ¹":3953,"ĠëĤĺìĻĶìľ¼ë©´":3954,"ĠëŁ¬ë¸Į":3955,"11":3956,"ĠìĺģíĻĶëĥĲ":3957,"ëĦ¤ìĿ´ë²Ħ":3958,"Ġë´¤ëĭ¤ê°Ģ":3959,"ìĹ¬ê¸°":3960,"ĠìķĮìķĦ":3961,"ĠìĿ´ëŁ°ìĺģíĻĶ":3962,"Ġìŀ¬ë¯¸ìŀĪê³ł":3963,"Ġëħ¹":3964,"ì§±ì§±":3965,"ê·¸ëŀĺìĦľ":3966,"Ġëıħë¦½":3967,"ĠìĬ¤íĨłë¦¬ë¥¼":3968,"ìĸ´ëł¸ìĿĦëķĮ":3969,"ë³įê²Į":3970,"ĠìĹ¬ìłĦíŀĪ":3971,"ìİĦ":3972,"ì¨":3973,"íķľì§Ģ":3974,"ëĿ¼ìĬ¤":3975,"ëŀĲëĭ¤":3976,"Ġìĺ¬ëĿ¼":3977,"ìĻĢë¥´":3978,"Ġíķµ":3979,"ĠìłĢëĬĶ":3980,"ĠìĹŃíķł":3981,"ìľĦíķ´":3982,"ê²°êµŃ":3983,"ĠìķĪëĲĺê³ł":3984,"Ġ80":3985,"íļ¨ê³¼":3986,"ĠìķĪë³¸":3987,"µĿ":3988,"ìĵ´":3989,"ìĿ´íĦ°":3990,"ëĭĪìķĦ":3991,"Ġë³´ëŁ¬":3992,"íķłê¹Į":3993,"Ġëįĺ":3994,"ĠëĤ´ìļ©ìĿĦ":3995,"Ġìļ°ìļ¸":3996,"Ġìĭľê°ĦëĤŃë¹Ħ":3997,"Ġì²ĺìĿĮìľ¼ë¡ľ":3998,"Ġíķľíİ¸":3999,"ĠìĥĿê°ģíķ©ëĭĪëĭ¤":4000,"ìĿ´ëĿ¼ìĦľ":4001,"ĠëģĿëĤĺê³ł":4002,"ìĹŃìĤ¬":4003,"íķľëĭ¤ë©´":4004,"ìĤ´ëĭ¤":4005,"ë¨¹ê³ł":4006,"ì¾Įíķľ":4007,"ìķĦëĭĪëĿ¼":4008,"ĠìŀĲìĭłìĿĺ":4009,"Ġì²łíķĻ":4010,"bb":4011,"ê¸°ë¶Ħ":4012,"Ġìłķì¹ĺ":4013,"ĠìĭľìĦł":4014,"Ġë´¤ìĹĪëĬĶëį°":4015,"Ġê°Ģì§Ħ":4016,"ìĿ¼ëĭ¨":4017,"Ġìŀ¬ë°Įìĸ´":4018,"ĠìłĦëĭ¬":4019,"ĠìķĪíķĺê³ł":4020,"ë¥¸ëĭ¤":4021,"Ġë³´ê¸°ìĹĶ":4022,"Ġìľłì¹ĺíķĺê³ł":4023,"ì§ĢìķĬìĿĢ":4024,"íĳľíĺĦ":4025,"ë©ĺíĦ°":4026,"ìĹ¬ìļ´ìĿ´":4027,"íīģ":4028,"an":4029,"ĵ¨":4030,"Ġë¥ĺ":4031,"ìĿ´ìŀĲ":4032,"ëłī":4033,"ìĹĪìĸ´":4034,"ì£¼ìĸ¼":4035,"íĨ¤":4036,"ê±¸ë¡ľ":4037,"ìĽĲìĿ´":4038,"ìĶ¨ê°Ģ":4039,"ĠëĪĦêµ¬":4040,"Ġê´ľíŀĪ":4041,"**":4042,"100":4043,"30":4044,"ou":4045,"įëĭĪëĭ¤":4046,"ìĿ´ë¥¼":4047,"íķľë§ĪëĶĶë¡ľ":4048,"ë²¤":4049,"ĠëĦĪë¬´ëĦĪë¬´":4050,"ë¯¸ì¹ľ":4051,"Ġìŀĺë´¤ìĬµëĭĪëĭ¤":4052,"ëłĪìĬ¤":4053,"ëŃĺ":4054,"Ġë³Ħë£¨":4055,"Ġì§ľì¦ĿëĤĺ":4056,"ĠíĴĢ":4057,"ĠëĮĢëĭ¨íķĺëĭ¤":4058,"ĠìķĪëĲ¨":4059,"Ġcg":4060,"ëĤĺìĿĺ":4061,"ì£¼ìĹ°":4062,"ëĤ´ìĿ¸ìĥĿ":4063,"ìĹĲìĦľìĿĺ":4064,"ĠëĮĢì¶©":4065,"ëĶĶìĸ´":4066,"íĬ¸ê°Ģ":4067,"ĠëĵľëĿ¼ë§ĪëĬĶ":4068,"ĠëĲĺìĹĪëĭ¤":4069,"ĠìĹ¬ìŀĲê°Ģ":4070,"ëĤ´ìļ©ìĿĢ":4071,"ê¶ģ":4072,"íĹĪìłĳ":4073,"15":4074,"ģìĵ¸":4075,"íķĺëł¤ëĬĶ":4076,"ĠìĹĨì§Ģë§Į":4077,"Ġì°¬":4078,"Ġì¤ĳë°ĺ":4079,"ì¶ľìĹ°":4080,"ëĨ¨":4081,"Ġìŀ¬ë¯¸ìĹĨìĸ´":4082,"ĠìłĦê¸°ìĦ¸ê°Ģ":4083,"ê¸°ìĿĺ":4084,"ìĭľìķĦ":4085,"ê¹Įì§Ħ":4086,"êµ¬íķĺê³ł":4087,"Ġëª¨ìŀĲ":4088,"ìĭłìĦł":4089,"ì¡°ê¸Ī":4090,"Ġë°Ķê¿":4091,"Ġê¼´":4092,"ì´ĪëĶ©":4093,"íıīë¡łê°Ģ":4094,"ĠíĻ©ëĭ¹":4095,"íĿ¥ë¯¸":4096,"ì§Īëģ":4097,"ãħģ":4098,"ĠìķĦìłĢìĶ¨":4099,"ĠëĤĺìĹĲê²Į":4100,"ìłĦíĺĢ":4101,"Ġìŀ¬ë¯¸ë¥¼":4102,"íİ¸ë³´ëĭ¤":4103,"ë²Ħëł¸ëĭ¤":4104,"ê»Ħ":4105,"ĠìĺĪìģľ":4106,"ì©Ķ":4107,"Ġì§Ģê¸Īê¹Įì§Ģ":4108,"ìĽĥê¸°":4109,"ìŀĬ":4110,"Ġë³´ìĭľê¸¸":4111,"ëĮĢëĬĶ":4112,"Ġëĭ¤ë§Į":4113,"ìŀĪìĸ´":4114,"ĠìĥĪë¡":4115,"Ġë³´ê³łëĤĺìĦľ":4116,"ĠìĤ¬ëĬĶ":4117,"ê²°ë§ĲìĿ´":4118,"ĠíĿ¥ë¯¸ë¡Ń":4119,"Ġê·¸ëŁ¼":4120,"ìĭľëĤĺë¦¬ìĺ¤":4121,"ĠìŀĪìĬµëĭĪëĭ¤":4122,"ì°Ŀ":4123,"ĠìĺģíĻĺ":4124,"ĠìµľìķħìĿ´ëĭ¤":4125,"Ġëª°ìŀħìĿ´":4126,"ĠìĹ°ê¸°ëł¥ìĿ´":4127,"¬ëł":4128,"!!!!!":4129,"ĠëĤĺë¥¼":4130,"ĠëĤĺíĥĢ":4131,"ìĪĺëĬĶ":4132,"ĠëĦĪë¬´ëĤĺëıĦ":4133,"ëĵľëĿ¼":4134,"Ġìŀ¬ë°ĮìĹĪìĸ´ìļĶ":4135,"ĠìĹ¬ìĦ±":4136,"ëįĶë§Į":4137,"ë§¤ëł¥":4138,"Ġê¸°ë¶ĦìĿ´":4139,"Ġìĸ´ìĥīíķľ":4140,"ì§Ģì»¬":4141,"Ġê·¸ëĵ¤ìĿĺ":4142,"ìĹĪì§Ģ":4143,"ë²¼":4144,"ĠìĹ°ê¸°ìĻĢ":4145,"ĠìĿ¼ëĭ¨":4146,"ëĲĺì§Ģ":4147,"ì¦ĪëĭĪ":4148,"ĠíķĦìļĶìĹĨëĬĶ":4149,"Ġìłľìŀĳì§Ħ":4150,"Ġê·ĢìĹ¬ìļ´":4151,"ĠíķĻêµĲ":4152,"ĠìłĦì²´ìłģìľ¼ë¡ľ":4153,"Ġì§ł":4154,"Ġëĭ¤ìĨĮ":4155,"ëŀĺê¸°":4156,"ë¬´ìĦľ":4157,"ìĤ¬ëŀĮìĿĢ":4158,"ĠìĻ¸êµŃ":4159,"ìŀĶìŀĶíķľ":4160,"ê°ĢëĬ¥":4161,"ë³´ìĿ´":4162,"Ġë°Ŀ":4163,"ë´ĩ":4164,"íĸĪëĭ¤ëĬĶ":4165,"ê°ĻìĿĮ":4166,"Ġë§Įëĵ¤ìĸ´ì§Ħ":4167,"ĠìĪĺì¤ĢìĿ´":4168,"Ġì©Ķ":4169,"Ġê¾¸":4170,"ĠìĺĪë»":4171,"ìĿ´ê²ĥëıĦ":4172,"ìĸ´ì§Ħ":4173,"ë¡ľëĬĶ":4174,"ë¡ľë§¨":4175,"ìķĦëĨĶ":4176,"ê±°ìļ´":4177,"Ġëĭ¤ìĭľë´ĲëıĦ":4178,"ìķĪë³´":4179,"Ġíı¬ìŀ¥":4180,"ëıĮìķĦ":4181,"ĳ¹":4182,"ĠìĿ´ìłł":4183,"ìłĲì£¼ëĬĶ":4184,"ê±°ë¦¬ëĬĶ":4185,"ë§ĪìłĢ":4186,"ìĥģìĿ´":4187,"Ġëı¼":4188,"Ġëįľ":4189,"Ġê¸°ë³¸":4190,"ĠìĪĺëıĦ":4191,"ĠìłĦìĹĲ":4192,"Ġê°ľíĮĲ":4193,"Ġìļ°ìĹ°íŀĪ":4194,"Ġê¼½":4195,"Ġë³´ì§Ģë§Ī":4196,"Ġë³´ì§Ģë§ĪìĦ¸ìļĶ":4197,"Ġë¦¬ë·°":4198,"ĠíĿĲë¦Ħ":4199,"µĿìĺ¤":4200,"ë¢":4201,"ë¡¯":4202,"ìĿ¸ëıĦ":4203,"ìĭľíĤ¨":4204,"ĠìŀĪëĤĺ":4205,"ê³µê°Ĳ":4206,"ĠìĤ¬ìĿ´":4207,"ĠìĤ¬ê·¹":4208,"ĠìłĢëłĩê²Į":4209,"ì½Ķë¯¹":4210,"Ġìĭ¬ìĭ¬":4211,"ìķĦê¹Įìļ´":4212,"Ġëª¸ë§¤":4213,"ĠìĨĮìŀ¬ë¡ľ":4214,"ë§ĺ":4215,"ì§ĢìĿĺ":4216,"Ġìŀĩ":4217,"Ġì¢ĭìĿĦ":4218,"ìľ¼ë¡ľìĦľ":4219,"Ġìĸ´ìĿ´ê°Ģ":4220,"ĠëŃī":4221,"ëĵ¯ìĿ´":4222,"Ġìĺ¤ëĿ½":4223,"ĠìľłìĿ¼":4224,"ëĦĪë¬´ëĤĺ":4225,"ĠìłĢëıĦ":4226,"ĠíĹĽ":4227,"ê´Ģê³Ħ":4228,"ĠìķĦëĭĮëĵ¯":4229,"ìĽłìĿĮ":4230,"Ġë°ĺìłĦìĿ´":4231,"Ġê·¸ëłĩëĭ¤":4232,"ĠíĹĪìłĳíķľ":4233,"ĠìķĦë¦Ħëĭµê³ł":4234,"?!":4235,"ìĿ´ë¦¬":4236,"ë§ĮìłĲ":4237,"Ġë°¤":4238,"ëĮĢìĿĺ":4239,"ĠíķĺëĦ¤ìļĶ":4240,"ëª¸":4241,"Ġìĺ¤ê·¸ëĿ¼":4242,"Ġë¶ĢíĦ°":4243,"ĠëĲĺê³ł":4244,"Ġê³łìĥĿ":4245,"ëĳĲê³ł":4246,"¬ë¦Ħ":4247,"ìķĪëĲ":4248,"ëĶ°ëĿ¼":4249,"Ġíı¬ê¸°":4250,"Ġì±Ļ":4251,"Ġê³µê°ĲìĿ´":4252,"Ġì¹´ë©ĶëĿ¼":4253,"Ġtv":4254,"Ġì§Ħë¶Ģíķľ":4255,"ìĺ¬ëķĮ":4256,"ĪëķĮ":4257,"ë¡±":4258,"¬ëŀĢ":4259,"Ġíķľë§ĪëĶĶë¡ľ":4260,"Ġë´¤ìľ¼ë©´":4261,"Ġê°ĢëģĶ":4262,"Ġ15":4263,"Ġê°ĻìķĦ":4264,"ĠëĶ´":4265,"íĤ¬ë§ģíĥĢìŀĦìļ©":4266,"ĠíĻľ":4267,"ĠíĥĪ":4268,"ĠëĳĲë²Ī":4269,"Ġë§¤ëł¥ìłģìĿ¸":4270,"êµ¬ë¥¼":4271,"ĠìĨĮë¦Ħëıĭ":4272,"Ġìļ©ìĦľ":4273,"Ġê´´ë¬¼":4274,"íķľê²ĥ":4275,"ĠìĿ´ê¸°":4276,"íķ´ì¤Ģ":4277,"Ġë³´ìĭľ":4278,"ë²Īë³´":4279,"ĠìĽĶ":4280,"Ġë¶ĢëģĦ":4281,"ìĨįìĹĲìĦľ":4282,"ëĬĲëĿ¼":4283,"ë¥ĺìĿĺ":4284,"Ġì§ľì¦ĿëĤĺëĬĶ":4285,"ĠìĿ´ìľłëĬĶ":4286,"Ġìĸ´ìĿ´ìĹĨëĬĶ":4287,"ĠëĪĪë¹Ľ":4288,"ë¢°":4289,"Ġë§¡":4290,"ëĦ£":4291,"ĠìĹĨëĤĺ":4292,"ë£¬":4293,"ìĦ±ìĹĲ":4294,"ĠìĨĮëħĢ":4295,"ë´¤ìĿĮ":4296,"ìŀ¬ë°ĮëĬĶëį°":4297,"ĠíıĲ":4298,"ë°°ìļ°ê°Ģ":4299,"ê¼½":4300,"ì§Ģë£¨íķ¨":4301,"Ġì¶Ķì²ľíķ©ëĭĪëĭ¤":4302,"ê´ľì°®ìĿĢ":4303,"ê²¹ëĭ¤":4304,"ĠOST":4305,"ìĿ´ëŀĺ":4306,"ìķĦëĭĺ":4307,"ê¹Įì§ĢëĬĶ":4308,"ì§ĢìķĬê³ł":4309,"ê¾¼":4310,"íķĺìĭľëĬĶ":4311,"ĠìĬ¬íĶĦëĭ¤":4312,"ĠìłĬìĿĢ":4313,"ìŀĪëįĺ":4314,"ãħĪ":4315,"ëįľ":4316,"ìĺ¹":4317,"Ġë°¥":4318,"ìŀĲëĭ¨":4319,"ĠëģĿëĤĺëĬĶ":4320,"ìĹ¬ë°°ìļ°":4321,"ëĪĦê°Ģ":4322,"ì¤ĺìĦľ":4323,"ĠíĿ¬ìĥĿ":4324,"ĠìĻłì§Ģ":4325,"ëıĦìĹĨê³ł":4326,"ìŀĲê³ł":4327,"Ġíķĺë£¨":4328,"ìĻĢëĬĶ":4329,"ìĭłìĿĺ":4330,"íķĺëĭ¤ê°Ģ":4331,"ĠìĥĿê°ģëĤĺëĬĶ":4332,"ë²Ħëł¸":4333,"Ġì¹¼":4334,"ĠìĤ´ì§Ŀ":4335,"ĠíĻķìĭ¤íŀĪ":4336,"ì¤ĳê°ĦìĹĲ":4337,"ĠìķĦë¦Ħëĭµëĭ¤":4338,"ĠìĪľìĪĺíķľ":4339,"ì§Ģë§Ī":4340,"Ġë³´ìĿ´":4341,"ìĺģíĻĶìŀĦ":4342,"ë³´ìĹ¬":4343,"ìŀ¥ë¥´":4344,"ìĤ¬ìĭ¤":4345,"Ġë§Īì¹ĺ":4346,"ëħĦìłĦìĹĲ":4347,"ìķĪìĹĲ":4348,"Ġë§Įëĵ¤ê³ł":4349,"Ġìĥģì²ĺ":4350,"Ġì¢ĭìķĺëįĺ":4351,"ë³ĦìłĲ":4352,"Ġíİĳ":4353,"Ġíĳľìłķ":4354,"Ġê±´ì§Ģ":4355,"Ġë´Ĳìķ¼íķł":4356,"ĠìĶ¬":4357,"ê°Ģê°Ģ":4358,"ê¸°ëįķ":4359,"ìķĦìĺ¤":4360,"ĠìŀĪì§Ģ":4361,"íŀĪëĬĶ":4362,"Ġë§ĲìĿĦ":4363,"Ġìĭ¶ìĸ´":4364,"Ġì¹¨":4365,"ë°°ìļ°ëĵ¤ìĿ´":4366,"ĠíıīìĥĿ":4367,"ĠíķĦìļĶìĹĨëĭ¤":4368,"ìŀ¥ë©´ìĿ´":4369,"ĠëĨĢëŀį":4370,"ĠëĸłëĤĺ":4371,"ĠìĦ¹ìĭľ":4372,"°©":4373,"ĠìĺģíĻĶê´Ģ":4374,"ëĵ¤ìĹĲ":4375,"Ġê²©":4376,"ĠìŀĪê²Į":4377,"ëįĺì§Ģ":4378,"Ġë¹Ħê·¹":4379,"Ġê°ĲëıĻìłģ":4380,"Ġìŀ¬ë¯¸ìĹĨëĦ¤":4381,"ìĺĪìĪł":4382,"ìĺĪìłĦìĹĲ":4383,"Ġì¡¸ëĿ¼":4384,"ëĭ¤ìĭľë´ĲëıĦ":4385,"Ġìĭ¸ìĿ´ì½Ķ":4386,"Ġìĭ«ëĭ¤":4387,"ê²¼ëĭ¤":4388,"Ġìŀ¼ìŀĪê²Į":4389,"Ġíģ¬ê²Į":4390,"ĠìĿ´ëŁ¬":4391,"Ġì§Ĳ":4392,"ìĺģíĻĶë³´ëĭ¤":4393,"ĠëĤĺìĿĢ":4394,"ĠìĺĢ":4395,"Ġìĺ¤ëŀľ":4396,"ĠíıīìłĲìĹĲ":4397,"Ġì§Ģë£¨íķĺì§Ģ":4398,"ëģ¼ë¦¬":4399,"ĠìĹŃìĭľëĤĺ":4400,"Ġìŀ¬ë°ĭê²Į":4401,"19":4402,"Ġìº":4403,"ìĿ´íĽĦ":4404,"ãħı":4405,"ëłģ":4406,"íķ´ì§Ħ":4407,"ì²«":4408,"ìĪĺìĹĨëĬĶ":4409,"íĬ¸ì½¤":4410,"ĠìĤ¬ê¸°":4411,"ìķłëĵ¤ìĿ´":4412,"ìĦ¤ìłķ":4413,"Ġë¶Ħëħ¸":4414,"Ġê¸´ìŀ¥":4415,"ì²ĺìĿĮë¶ĢíĦ°":4416,"ìĽĲìŀĳìĿĦ":4417,"ĠìĤ°ë§Į":4418,"Ġíļ¨":4419,"ìĨĮìŀ¬ëĬĶ":4420,"Ġê¹ĶëģĶ":4421,"ëĬĶê±´":4422,"ĠìĺģíĻĶë³´ê³ł":4423,"ìĺģíĻĶê´ĢìĹĲìĦľ":4424,"Ġê·¸ê²ĥ":4425,"Ġê·¸ë¦°":4426,"ìŀĲìĹ°":4427,"ìĪĺìĿĺ":4428,"ĠëĵľëŁ¬":4429,"ëł¥ìĿĦ":4430,"ĠíĽĦìĨį":4431,"ĠíķĦìļĶíķľ":4432,"ĠëĿ¼ê³ł":4433,"ĠíĻįë³´":4434,"Ġê·ĢìĹ½ê³ł":4435,"on":4436,"ĥ¥":4437,"ëĤļ":4438,"ìĭľìĹĲ":4439,"ê°ĦìĿĺ":4440,"êµ¬ëĭĪ":4441,"ì¤ĳìĿĺ":4442,"ĠìķĬê²Į":4443,"Ġêµ¬ë":4444,"Ġìĺ¤ë²Ħ":4445,"Ġìķłëĵ¤ìĿ´":4446,"ìŀĶìĿ¸":4447,"ê°Ĳëıħëĭĺ":4448,"ìĿ¸ê°ĢìļĶ":4449,"Ġíĺķíİ¸":4450,"ĠìĨĮë¦Ħëģ¼":4451,"Ġê¹Įì§Ģ":4452,"ad":4453,"Ġë±":4454,"Ġë¿":4455,"ìĿ´ë©°":4456,"íķĺëł¤":4457,"ìĦ¯":4458,"ĠìĿ´ë£¨":4459,"ìĬ¤íĨł":4460,"ĠìĹ°ìķł":4461,"ëªħìĿĺ":4462,"Ġìĭľê°ĦìĿĦ":4463,"ìĬ¤íĨłë¦¬ëĬĶ":4464,"íķĺê¸°ëıĦ":4465,"ëįĶëĿ¼êµ¬ìļĶ":4466,"ëıħêµĲ":4467,"Ġì£Ħëĭ¤":4468,"ĠíĻĶëł¤íķľ":4469,"ëĭ¤ìĿĮ":4470,"Ġìŀ¤":4471,"ìĿĦê±°":4472,"Ġê·¸ë¦½":4473,"ë°ĳìĹĲ":4474,"Ġíķĺë©´ìĦľ":4475,"ĠìĹ°ìĺĪ":4476,"ìĭ¤íĻĶ":4477,"Ġë³´ê³łìĭ¶ëĭ¤":4478,"Ġë°ĺìĦ±":4479,"ĠìĿĺë¬¸":4480,"Ġëª°ëĿ¼ëıĦ":4481,"ĠíĬ¹ë³Ħ":4482,"Ġì£¼ìĿ¸ê³µìĿĺ":4483,"ë¶Īê°Ģ":4484,"ĠãħħãħĤ":4485,"re":4486,"ĠìĭŃ":4487,"Ġê·¸ì§Ģ":4488,"ìĭĿìĿĦ":4489,"ĠíĺĦìŀ¬":4490,"íĶ¼ìĨĮ":4491,"ì£¼ìĿ¸ê³µìĿ´":4492,"ìŀĲì²´ê°Ģ":4493,"Ġw":4494,"ìĿ´ëĭĪ":4495,"ê²Ģ":4496,"ìķĦëĭĪëĭ¤":4497,"ĠìłķìĦľ":4498,"ĠìŀĪìĸ´ìļĶ":4499,"ê·¸ìĿ¸":4500,"Ġì§Ħìłķ":4501,"Ġê°Ģê¹Į":4502,"ĠìĬ¤íĬ¸":4503,"ë¶Ģì¡±":4504,"Ġìŀ¬ë°ĮëĬĶëį°":4505,"Ġì¶ķ":4506,"Ġì¡°íıŃ":4507,"ĠìĤ¬ëŀĳìĹĲ":4508,"Ġë¶Īêµ¬íķĺê³ł":4509,"ì¹ľëĭ¤":4510,"ĠìĦłìĥĿ":4511,"Ġê³¼ìĹ°":4512,"ĠíĢĦë¦¬íĭ°":4513,"íķĺìĭł":4514,"ê°ĢëĿ½":4515,"ìĹĲë§Į":4516,"Ġëĭ¬ëĿ¼":4517,"ĠìĭľìĽĲ":4518,"Ġë¬´ìĭľ":4519,"ĠìĽ¬":4520,"Ġë¯¸ìĬ¤":4521,"ĠìĤ¬ëŀĳíķĺëĬĶ":4522,"Ġì¢ĭìķĦìĦľ":4523,"Ġë¶Ħëĵ¤":4524,"Ġë°ĽìķĦ":4525,"ĠìķħìĹŃ":4526,"ì¤ĺìķ¼":4527,"Ġê¹¨ëĭ«":4528,"ê°ĢìĬ´ìĿ´":4529,"Ġë¸ĶëŀĻ":4530,"ë¿Ķ":4531,"Ġìī½ê²Į":4532,"Ġíķ´íĶ¼ìĹĶëĶ©":4533,"ë§ĪìĬ¤":4534,"ĠëĤĺìĺ´":4535,"ì§Ħë¶Ģ":4536,"ìĤ¬ìĿ´":4537,"ĠëģĦ":4538,"Ġíı¬ë":4539,"ë§ĲìĿ´íķĦìļĶ":4540,"êµ¬ë¡ľ":4541,"Ġê²ģëĤĺ":4542,"ë§Ļ":4543,"Ġê°ľìĿ¸":4544,"íİ¸ìĹĲ":4545,"ë¦¬ëĦ¤":4546,"ĠìĹ°ì¶ľëıĦ":4547,"ë¸Ĳ":4548,"ĠìĦ¤ëłĪ":4549,"ĠëĤ®ìķĦìĦľ":4550,"ĠìĹ´ìĭ¬íŀĪ":4551,"ĠëĸłëĤĺìĦľ":4552,"ĠOOOê¸°":4553,"Ġê·¸ê±¸":4554,"ìłĲì£¼":4555,"Ġìĸ´ëł¸":4556,"Ġìŀ¬ë°ĮìĹĪëĬĶëį°":4557,"Ġìŀ¬ë°ĮìĹĪìĿĮ":4558,"ĠìķĬìķĦ":4559,"ĠëĤ¨ìĿĦ":4560,"ĠìĿ´ëŁ°ê±¸":4561,"Ġìķ¡ìħĺìĿ´":4562,"ìł¸ìļĶ":4563,"Ġê¸°ëĮĢë¥¼":4564,"íķĻëħĦ":4565,"ĠëĳĲê³ł":4566,"ĠíĺĦìĭ¤ìĿĦ":4567,"ê¿Ī":4568,"Ġëľ»":4569,"ìķĦê¹ĮìĽĮ":4570,"Ġëĳĺëĭ¤":4571,"Ġìľłì¾Įíķľ":4572,"ìĸ´ëĸ¤":4573,"¥´ëħ¸":4574,"Ġêµ³ìĿ´":4575,"Ġìħ":4576,"ìĿ´ë¯¸":4577,"ì§Ģë§ĪëĿ¼":4578,"íķĺìħ¨":4579,"ĠìĿ´ê²ĥëıĦ":4580,"ĠìĿ´ìģľ":4581,"ìĿ¸ëĵ¤":4582,"ìĭľëĤĺ":4583,"ëŀµ":4584,"Ġì°¡":4585,"ìħī":4586,"Ġëª»íĸĪëĭ¤":4587,"ĠìŀĲë§ī":4588,"ë´¤ëįĺ":4589,"íĿĶ":4590,"Ġê²°ë¡ł":4591,"ĠëĬĲëĤĢ":4592,"Ġë°ľìłĦ":4593,"ĠëĬĲëĤĮìĿĦ":4594,"ì»¨":4595,"Ġãħĭãħĭãħĭãħĭãħĭ":4596,"Ġìį©":4597,"CG":4598,"íĵ¨":4599,"íķľëĭ¤ê³ł":4600,"ĠìĿ´ë»Ĳ":4601,"ëł·":4602,"...?":4603,"ĠìķĦìĺ¤":4604,"ĠëĤĺê°Ģ":4605,"ìļ°ê³ł":4606,"Ġìµľê·¼":4607,"Ġë¬´ì§Ģ":4608,"ë¬´ë¹Ħ":4609,"Ġê°ĲëıĻìłģìĿ´ê³ł":4610,"Ġê±°ì§ĵ":4611,"ê²¨ìļ´":4612,"ĠìĿ´íķ´íķł":4613,"ìŀ¡íķľ":4614,"ë¶Īìĸ´":4615,"ëįĶëĿ¼ëıĦ":4616,"Ġê²°ë§ĲëıĦ":4617,"ĠìĺģíĻĶìĹĲìļĶ":4618,"ëŀįëĭĪëĭ¤":4619,"ĠìĬ¤ì¼ĢìĿ¼":4620,"ê°Ģì§Ģê³ł":4621,"ëĤ«":4622,"ëĤ¼":4623,"ìķĦìī½":4624,"Ġìĭ¬ë¦¬":4625,"Ġê·¸ëŀ¬":4626,"ìŀĳìĿ´":4627,"ì°®":4628,"íĸĪëĬĶì§Ģ":4629,"ìĭłìĿĢ":4630,"ê²łìĿĮ":4631,"Ġë§ĪìĦ¸ìļĶ":4632,"ĠëĲĺì§Ģ":4633,"Ġê°Ĳëªħ":4634,"íĮĲìĹĲ":4635,"ĠëıĻìĥĿ":4636,"Ġë³Ħë¡ľëĭ¤":4637,"ìĤ¬ëŀĮëĵ¤ìĿ´":4638,"ì§Ģë£¨íķĺëĭ¤":4639,"ĠíĴĭ":4640,"Ġê¹ĬìĿ´":4641,"ì¤Įë§Ī":4642,"is":4643,"íķĺëĿ¼":4644,"íķĺëł¤ê³ł":4645,"ĠìĹĳ":4646,"ĠìĿ´ìĺģíĻĶê°Ģ":4647,"ë§Įëĵľ":4648,"ìĹĪëĬĶì§Ģ":4649,"ê²łëĦ¤ìļĶ":4650,"Ġë¹Ħì£¼ìĸ¼":4651,"ëĭ¨ìĪľ":4652,"Ġë°°ìļ°ìĿĺ":4653,"Ġì¢ĭìķĦíķł":4654,"íıīìłĲìĹĲ":4655,"¬ë¦¼":4656,"Ġìĭłê²½":4657,"ĠëķĮë¬¸":4658,"Ġë³¼ë§Įíķ¨":4659,"ìĵ°ëłĪê¸°ìĺģíĻĶ":4660,"ì¢ĭìĿĢìĺģíĻĶ":4661,"ĠìĬ¬íĶĦê³ł":4662,"ë±":4663,"Ġìĩ¼":4664,"Ġëĭ¬ë¦¬":4665,"Ġìĥ¤":4666,"Ġê²ĮìĿ´":4667,"ĠìŀĪìĸ´ìķ¼":4668,"ê³¼ìĿĺ":4669,"Ġíķľëį°":4670,"Ġì¤Į":4671,"íİ¸ëıĦ":4672,"Ġë§İëĭ¤":4673,"ĠìłĢìĺĪìĤ°":4674,"ë´ĲìļĶ":4675,"ì¢ĭìķĦíķĺëĬĶ":4676,"Ġíıīë²Ķíķľ":4677,".\"\"\"":4678,"¦ê²Į":4679,"ìĿ´ìħĺ":4680,"ìķ¤":4681,"ì§ĢëĤĺ":4682,"ĠìŀĪëĦ¤ìļĶ":4683,"Ġíĳ¹":4684,"ĠìĹĨëĬĶëį°":4685,"ìķĺê³ł":4686,"ì¤ĳë°ĺ":4687,"ĠëįĶìĿ´ìĥģ":4688,"íķĺëĭ¤ëĭĪ":4689,"ĠìĽĢ":4690,"ĠëĤ¨ì£¼":4691,"ĠìĿ¼ìĥģ":4692,"ĠëĲĺê²Į":4693,"ì²ĺêµ¬ëĭĪ":4694,"ĠíŀĲë§ģ":4695,"007":4696,"ëŃĲëĥĲ":4697,"Ġê·¸ëłĩëĭ¤ê³ł":4698,"Ġìķħëĭ¹":4699,"Ġìī¬":4700,"ë§ĪìĿĮìĿ´":4701,"Ġ<":4702,"Ġíĩ´":4703,"ĠìĹĨëĭ¤ëĬĶ":4704,"ĠëĤĺì¤ĳìĹĲ":4705,"íĸĪëĦ¤":4706,"ĠìĹ°ê²°":4707,"Ġë³¼ìĪĺë¡Ŀ":4708,"Ġë³¼ëķĮë§Īëĭ¤":4709,"ê³ĦìĿĺ":4710,"Ġìŀ¬ë¯¸ìŀĪìĿĮ":4711,"Ġìĭ¶ëĦ¤ìļĶ":4712,"íĽĮë¥Ń":4713,"ë©ĭì§Ħ":4714,"ìķĦê¹ĮìĽĢ":4715,"ëĤĺìĻĢìĦľ":4716,"Bê¸ī":4717,"at":4718,"ŀĳ":4719,"Ġëº":4720,"ëĬĶìĺģíĻĶ":4721,"¬ë°":4722,"Ġì§ķ":4723,"ìľ¼ë¡ľìį¨":4724,"íķ¨ìĹĲ":4725,"ìĤ¬ìĿĺ":4726,"ĠìłĦíĺķìłģìĿ¸":4727,"Ġë§Ĳíķł":4728,"ĠëĿ¼ìĿ´":4729,"Ġëª©ìĨĮ":4730,"ê½¤":4731,"Īëł":4732,"ë¡ľëıĦ":4733,"ìļ°ìĻĢ":4734,"Ġìĭľê°ģ":4735,"Ġì°Ŀ":4736,"ĠìĥĿê°ģíķĺê³ł":4737,"ë¬´ì§Ģ":4738,"ìŀ¬ë¯¸ê°Ģ":4739,"ĠìĤ¬ëŀĮìĿĺ":4740,"ëª¨ëĳĲ":4741,"ĠíķĺëĬĶì§Ģ":4742,"ìĺ¨ëĭ¤":4743,"íĭ°ë¸Į":4744,"ĠìĬ¬íĶĶ":4745,"ĠìĤ°ìľ¼ë¡ľ":4746,"Ġë°ĶëĢĮ":4747,"Ġíİĳíİĳ":4748,"ì§Ħìłķíķľ":4749,"ìłĦì²´":4750,"ìĦ±ìļ°":4751,"ĠëĤ¨ëħĢ":4752,"íĿ¡":4753,"ê´ĢëŀĮ":4754,"ĠìĥĿìĥĿ":4755,"Ġë°ĺìłĦëıĦ":4756,"ìķĦìĿ´ëĵ¤ìĿ´":4757,"¬ëįĺ":4758,"BS":4759,"ĠëĩĮ":4760,"ê²ĮìŀĦ":4761,"Ġë³´ìķĺëĭ¤":4762,"ë°¤":4763,"Ġì¢ĭìĬµëĭĪëĭ¤":4764,"Ġëª»íķł":4765,"íļį":4766,"ëŀĢëĭ¤":4767,"Ġìķ¡ìħĺìĿĢ":4768,"Ġë§Įëĵłëĭ¤":4769,"Ġì§±ì§±":4770,"Ġìŀ¬ëĤľ":4771,"ĠìĿĮìķħëıĦ":4772,"Ġì©Į":4773,"Ġê´ĳê³ł":4774,"ĠT":4775,"ì§Ģë§Ĳ":4776,"íķĺêµ¬":4777,"ëį©":4778,"ëĤĺë§Į":4779,"ê±°ë©´":4780,"ëĮĢë¥¼":4781,"ĠìŀĪìľ¼ë©´":4782,"ê·¸ë¦¬":4783,"ìĦ±ìĿĺ":4784,"ĠëĮĢíĳľ":4785,"ĠìķĬì§Ģë§Į":4786,"ĠíĿ¡":4787,"ìĪŃ":4788,"ĠëĨį":4789,"ëŁ½ê³ł":4790,"Ġê°ķëł¬":4791,"ì§ĳëĭĪëĭ¤":4792,"ìĶ¬ìĿĢ":4793,"Ġì¡´ê²½":4794,"ĠëĪĪë¬¼ìĿĦ":4795,"ĠìĿ´ìłľìķ¼":4796,"Ġë¹¼ê³ł":4797,"âĻ¡âĻ¡":4798,"ìĬ¤íĥĢìĿ¼":4799,"ìħĶìĦľ":4800,"ë´£ëĬĶëį°":4801,"Ġë´£ëĬĶëį°":4802,"ĠA":4803,"Ġìª½":4804,"ĠìĺģíĻĶëĿ¼ëĬĶ":4805,"ë¡ľìĦľ":4806,"ĠìķĦì¹¨":4807,"íģ¬ë¦¬ìĬ¤":4808,"Ġì²´":4809,"ĠìĤ´ê³ł":4810,"ĠìĺĪìłĦ":4811,"Ġìĭ¬ê°ģ":4812,"ĠìĬ¬íİ":4813,"ĠëĨĴëĭ¤":4814,"ĠìĥĿìķł":4815,"ìĸ¼êµ´":4816,"Ġì»¨":4817,"ì§Ģê¸Īê¹Įì§Ģ":4818,"Ġì¢ħêµĲ":4819,"ĠìĿ´ìģĺê³ł":4820,"ĠìĮ":4821,"ìĿ´ê¸°":4822,"ìĿ¸íĬ¸":4823,"ì£¼ìłľ":4824,"íŀĲ":4825,"ë¬´ìĹĩ":4826,"ëıĻìĥĿ":4827,"Ġì¢ĢëįĶ":4828,"Ġìķ¡ìħĺìĺģíĻĶ":4829,"ĠëıĻë¬¼":4830,"ar":4831,"ëĭ¬ëĿ¼":4832,"íķµ":4833,"ê°ĸ":4834,"ìķķ":4835,"ì§Ģìĸ´":4836,"ĠìķĦëł¨":4837,"ìľ¼ëĭĪê¹Į":4838,"ê±°ìŀĦ":4839,"ë²¨":4840,"ĠìĬ¤íı¬":4841,"ë¯¸ê°Ģ":4842,"ĠìĹ°ê¸°ìŀĲ":4843,"Ġìŀ¬ë°ĮìĬµëĭĪëĭ¤":4844,"Ġë¬´íĺĳ":4845,"ë¶ĦìľĦ":4846,"íģ¬ë¦°":4847,"ĠìĿ¼ë¶Ģ":4848,"ìµľê·¼":4849,"ìĹŃëĮĢ":4850,"ìĿ´ëŁ°ìĺģíĻĶ":4851,"Ġê·¹ì¹ĺ":4852,"íĺ¸ê°Ģ":4853,"Ġëĭ¨ìĹ°":4854,"ìĦĿìĿ´":4855,"Ġëªĩë²Ī":4856,"Ġê½Ŀ":4857,"Ġì§Ħìĭ¬ìľ¼ë¡ľ":4858,"ĠìłĲìĪĺë¥¼":4859,"ĠëĽ°ìĸ´ëĤľ":4860,"Ġíĥľìĸ´":4861,"ê½ĥ":4862,"Ġìĵ¸ëį°":4863,"Ġë½ĳ":4864,"Ġë§Īë¬´ë¦¬":4865,"ìĿ´ìłķëıĦ":4866,"ĠìĺģíĻĶìĿ¸ëĵ¯":4867,"Ġëĭ®":4868,"ĠìĹ°ìĨį":4869,"Ġì§Ģê¸Īë´ĲëıĦ":4870,"ê·¸ëłĩê²Į":4871,"Ġìĭľë¦¬":4872,"ìķĺì§Ģë§Į":4873,"Ġê°Ģìł¸":4874,"ĠìľĮ":4875,"Ġë¬´ë¹Ħ":4876,"ĠëĤ¨ê²¨":4877,"íĬ¸ë§¨":4878,"Ġì§Ģë£¨íķ´ìĦľ":4879,"ëĤłëķĮ":4880,"ì©¡":4881,"ĠíĳľìłĪ":4882,"ê¼´":4883,"ìĸĳìĿ´":4884,"ĠìĿ¸ìĥĿìĿĦ":4885,"ĠìķĦìī¬ìĽĢ":4886,"Ġìĭ¸êµ¬ëł¤":4887,"ì¡¸ìŀĳ":4888,"ê³µíı¬ìĺģíĻĶ":4889,"ìıĺ":4890,"ver":4891,"ìĿ´ìĺģíĻĶë¥¼":4892,"ëĵ£":4893,"ìĹĲëĮĢíķľ":4894,"ëĤĺëĦ¤":4895,"Ġë³´ëĭĪê¹Į":4896,"ë§ĲìĿĦ":4897,"ìĻĵ":4898,"Ġê²ī":4899,"íĮ©":4900,"ìĨĮëħĢ":4901,"Ġê°ĻìķĦìĦľ":4902,"Ġë§ĲíķĺëĬĶ":4903,"Ġë³¸ëĭ¤ë©´":4904,"ĠìĨĮìŀ¥":4905,"Ġë¯¸ì¹ĺ":4906,"ë¦¬ë©°":4907,"Ġê³łìłĦ":4908,"Ġê³łíĨµ":4909,"Ġê±°ê¸°":4910,"ĠìŀĳíĴĪìĿ´ëĭ¤":4911,"ìĶ¨ìĿĺ":4912,"ĠìĨįìĹĲ":4913,"ĠìĿĮìķħìĿ´":4914,"Ġëĸłìĺ¤":4915,"ĠìĤ¶ìĿĺ":4916,"ĠìĶģìĵ¸":4917,"~~~~~~~~":4918,"ĠìĿĺë¯¸ë¥¼":4919,"it":4920,"Ġ^":4921,"Ġgood":4922,"ê°Ĵ":4923,"ë§ĮìĿĦ":4924,"ëĦ·":4925,"ĠìĦŀ":4926,"ìŀ¬ë¯¸ëĬĶ":4927,"ĠìĤ¬ëŀĳê³¼":4928,"ĠìķĦê¹Ŀì§Ģ":4929,"Ġë©ĭì§Ģëĭ¤":4930,"ê°ĢëĬĶì¤Ħ":4931,"Ġì§Ģê¸ĪìĿĢ":4932,"ëĲ¬":4933,"ĠìķĦìĿ´ëĵ¤ìĿ´":4934,"ìĬ¤ëŁ¬ìĽĢ":4935,"ĠíĳľíĺĦíķľ":4936,"ĠìĺģíĻĶìĺĢìĸ´ìļĶ":4937,"ìĻĦë²½":4938,"Ġëĵ±ìŀ¥ìĿ¸ë¬¼":4939,"ing":4940,"Ġì¥Ĳ":4941,"ĠìĬĪíį¼":4942,"ll":4943,"ħ¸":4944,"ê°Ģë¥¼":4945,"ĠëĤ´ëł¤":4946,"ê²łìĸ´ìļĶ":4947,"ĠìķĪëı¼":4948,"Ġë³¸ìĺģíĻĶ":4949,"Ġë¹¡":4950,"ĠëģĿëĤľ":4951,"Ġìŀ¬ë¯¸ìŀĪìĹĪëĭ¤":4952,"Ġë°ĺë³µ":4953,"ĠìŀĳíĴĪìĿĦ":4954,"ê´ĢìĿ´":4955,"Ġìŀ¥ë©´ìĹĲìĦľ":4956,"ê°ĲëıħìĿĢ":4957,"ë³Ħë£¨":4958,"ĠìĹĲíĶ¼ìĨĮ":4959,"ìĥĿê°ģìĹĨìĿ´":4960,"ĠìķĦìĿ´ëĵ¤":4961,"Ġëª¨ëĵłê²Į":4962,"Ġì¹ľêµ¬ëĵ¤":4963,"Ġìķķê¶Į":4964,"ì¥Ĳ":4965,"Ġìĸ´ëł¤ìļ´":4966,"ie":4967,"¨¸":4968,"ĠìĮį":4969,"ĠìĺģíĻĶëĵ¤":4970,"ê±°ê°Ļëĭ¤":4971,"ìĨĶ":4972,"Ġì§Ģì¼ľ":4973,"ĠëįĶë¶Īìĸ´":4974,"Ġë³¼ê²Į":4975,"ìĺģìĿ´":4976,"íĿ¬ë":4977,"Ġê±°ìĬ":4978,"Ġëĭ¤ìĭľíķľë²Ī":4979,"ìĭľê°ĦìĹĲ":4980,"Ġìļ¸ê³ł":4981,"Ġìļ¸ìĹĪëĭ¤":4982,"ĠìĻ¸ëª¨":4983,"Ġë¨¹ê³ł":4984,"Ġê²½íĹĺ":4985,"ĠêµŃë¯¼":4986,"Ġìĸ¸ìłľëĤĺ":4987,"¬ëįĶ":4988,"ĠëĬ¥ëł¥":4989,"ĠëıħíĬ¹íķľ":4990,"Ġê²Ģìĥī":4991,"44":4992,"bs":4993,"ë¤":4994,"ìĿ´ìĺģíĻĶëĬĶ":4995,"ëĭ¤ëĵ¤":4996,"íķĺì§Ħ":4997,"ĠìŀĪëįĺ":4998,"ëĤĺëĭ¤":4999,"ìķĦë¹ł":5000,"ìĥģíĻ©":5001,"ĠëĮĢë¶Ģë¶Ħ":5002,"ĠìłĦíĪ¬":5003,"ê°ľê·¸":5004,"ê°ĲëıĦ":5005,"ĠìĿ´ëŁ°ê²Į":5006,"ĠíĿī":5007,"ìĽĲëŀĺ":5008,"ëĲĺìĦľ":5009,"Ġì¡°íķ©":5010,"ìĹ°ê¸°ëĬĶ":5011,"Ġë°ľê²¬":5012,"Ġãħłãħłãħł":5013,"Ġë§Ŀì³Ĳ":5014,"ĠìĬ¤ë¦´ëŁ¬ë":5015,"íĺ¼ìŀĲ":5016,"Ġëª¨ë¥´ê²łê³ł":5017,"ĠíıŃëł¥":5018,"ĠëģĮìĸ´":5019,"Ġë°Ķê¿Ķ":5020,"Ġì°Ŀì°Ŀ":5021,"ĠìĿµ":5022,"ìļ°ê¸°":5023,"Ġìŀ¬ë¯¸ìŀĪëĦ¤ìļĶ":5024,"Ġíķľì°¸":5025,"ĠìĬ¤ìĬ¤ë¡ľ":5026,"ë¯¸ìķĪ":5027,"ìĨĮë¦Ħ":5028,"ìĺĢì§Ģë§Į":5029,"Ġê°ĲëıĻê³¼":5030,"Ġë¯¸ëª¨":5031,"Ġì§Ģë£¨íķł":5032,"ê¸´ëĭ¤":5033,"ĠìĿĺìĭ¬":5034,"ĠìĬ¬íį¼":5035,"ĠëĨĴìķĦ":5036,"Ġê²Įëĭ¤ê°Ģ":5037,"ĠìķĦìī½ëĦ¤ìļĶ":5038,"ĠëĬĲëģ¼ëĬĶ":5039,"âĻ¥âĻ¥âĻ¥âĻ¥":5040,"Ġë¹łìł¸ëĵ¤":5041,"ĠìĦ¬ìĦ¸":5042,"ìĸ´ë¥¸":5043,"ìłĦìŀĳ":5044,"ìĤ¬ê±´":5045,"ĠìĻľì¼Ģ":5046,"ë²Ħë¦¬ê³ł":5047,"ĠìĿ¼ë°ĺ":5048,"ìĺģíĻĺ":5049,"ĠíĹĲ":5050,"íĿĺ":5051,"Ġì²ĺëŁ¼":5052,"ĠíĺĦëĮĢ":5053,"ë°©ìĤ¬":5054,"Ġë°ķìĪĺë¥¼":5055,"ĠìĻ¸ê³Ħ":5056,"ĠìĽĥê¸°ê³ł":5057,"Ġë¹¼ê³łëĬĶ":5058,"ĠëĶ°ëľ»íķ´ì§ĢëĬĶ":5059,"Ġëĭ¤íģĲë©ĺíĦ°":5060,"ìŀ¬ë¯¸ìĹĨìĸ´":5061,"ì³¤ëĭ¤":5062,"ĠìĿ´íĽĦë¡ľ":5063,"ĠíĴĭíĴĭ":5064,"ë®¤":5065,"íĻĶëł¤":5066,"íķĺê²łëĭ¤":5067,"ĠìķĦë¥ĺ":5068,"ê±°ëĿ¼":5069,"ìĹĪìĿĦê¹Į":5070,"Ġëĭ¤ë£¬":5071,"Ġê²¬":5072,"ëĵľìĿĺ":5073,"ìĦ±ì¹ĺ":5074,"ê²ĥë§Į":5075,"ĠìĿ¸íĦ°":5076,"ìľłì¾Į":5077,"Ġíķłê¹Į":5078,"ĠëıĻìķĪ":5079,"ĠëĤľíķ´":5080,"ë§¤ìļ°":5081,"íķĺëĤĺëıĦ":5082,"ĠëĲ¨":5083,"ĠìĿ¸ìĥĿìĿĺ":5084,"Ġ40":5085,"ìłĦê°ľê°Ģ":5086,"Ġë¯¼ë§Ŀ":5087,"Ġëĺĳê°Ļ":5088,"ìĸ´ìĦ¤íĶĪ":5089,"ĠëŃīíģ´":5090,"íĮĢ":5091,"ë¡Ģ":5092,"Ġìĭ±":5093,"ìłķìĿĢ":5094,"íĸĪëĦ¤ìļĶ":5095,"ëĤ´ìĥĿ":5096,"ê·¸ë§Į":5097,"ëĥĪ":5098,"ãħĭãħĭãħĭãħĭãħĭãħĭ":5099,"Ġë§Ĳë¡ľ":5100,"Ġëª»íķ´":5101,"Ġìłľë¡ľ":5102,"ĠëģĶ":5103,"ë²ĦíĬ¸":5104,"ë¬¸ìłľ":5105,"ìŀ¬ë°Įìĸ´":5106,"ĠìĤ¬ëŀĳìĿ´ìķ¼ê¸°":5107,"íĶĦëŀĳìĬ¤":5108,"Ġì¢ĭìķĺìĿĦ":5109,"ìĪľìĪĺ":5110,"ĠëĪĪìĹĲ":5111,"ì³ĲìĦľ":5112,"ĠíĭĢìĸ´":5113,"ĠìķĦì§ģê¹Įì§Ģ":5114,"Ġì¤ĳê°Ħì¤ĳê°Ħ":5115,"ĠìĦ¸ìĥģìĹĲ":5116,"ìĭľíĤ¤ëĬĶ":5117,"ì«":5118,"ìĿ¸ëĵ¤ìĿ´":5119,"êµ¬ëŀĳ":5120,"Ġê·¸ëŁ¬ë":5121,"Ġê·¸ëŁŃìłĢëŁŃ":5122,"ì¹¸":5123,"ì¹¼":5124,"Ġì¢ĭì§Ģë§Į":5125,"Ġìĺ¬ëł¤":5126,"Ġì£¼ë³Ģ":5127,"ë¹Į":5128,"Ġê³µë¶Ģ":5129,"ëĸł":5130,"ë¨¸ë¦¬":5131,"ëľ©":5132,"ĠìĨįíİ¸":5133,"Ġê°Īëĵ±":5134,"Ġë¯¿ìĿĦ":5135,"Ġë¶ģíķľ":5136,"Ġë»":5137,"íķŃ":5138,"ê°ĵ":5139,"ìĿ´ëŁ¬":5140,"ìł¼":5141,"ë¦¬ê¸°":5142,"ìľĦë¡ľ":5143,"Ġë³´ê¸¸":5144,"Ġë°ĭ":5145,"ìŀ¥ìĹĲìĦľ":5146,"Ġë´¤ëįĶëĭĪ":5147,"ê²ĥëĵ¤":5148,"íĮį":5149,"íİĻ":5150,"ê°ľìĹ°":5151,"ëįĶëŁ½ê²Į":5152,"Ġë§İìķĦ":5153,"Ġë°°ìļ°ëĵ¤ëıĦ":5154,"Ġì¢ĭìķĦíķĺëĬĶëį°":5155,"ìĭĿìĿĺ":5156,"íĤ¤ëĬĶ":5157,"íħĮìĿ¼":5158,"Ġê²°ë§ĲìĿĢ":5159,"ĠëĴ¤ë¡ľ":5160,"ì¯§":5161,"ãħłãħłãħłãħłãħłãħłãħłãħł":5162,"Ġì¦Ĳê²ģê²Į":5163,"ãĢ":5164,"ĠìķĪë¬´":5165,"ëĤĺëĦ¤ìļĶ":5166,"ĠëĤ³":5167,"ìŀĲëĤĺ":5168,"ĠìĭľíĬ¸ì½¤":5169,"Ġìłķë§Ĳë¡ľ":5170,"ìĭłìĿĦ":5171,"ĠìķĬëĤĺ":5172,"Ġë¹ĦíĺĦìĭ¤":5173,"ìŀ¬ë°Įê³ł":5174,"ĠëĤĺìĺ¤ë©´":5175,"Ġëĵ¤ìĹĪëĭ¤":5176,"ê°ĲëıĻìłģìĿ´":5177,"ĠíĺĦìĭ¤ìłģìĿ¸":5178,"ì§Ģë£¨íķľ":5179,"ĠìķĪë³´ê³ł":5180,"!!!!!!!!!!!!!!!!":5181,"Ńī":5182,"ê°±":5183,"ìĦ¹":5184,"ìĸ´ìłľ":5185,"ëĭĪê¹Ĳ":5186,"Ġëª½":5187,"ìłĦíĺķìłģìĿ¸":5188,"ìĻĢìļ°":5189,"ĠìĥĿê°ģíķĺëĬĶ":5190,"ê¸´íķľëį°":5191,"Ġëª°ìŀħíķ´ìĦľ":5192,"Ġë°©ë²ķ":5193,"Ġë»Ķíķĺê³ł":5194,"Ġë¬¸íĻĶ":5195,"Ġìĥģìĥģëł¥":5196,"ĠëĬĺìĸ´":5197,"13":5198,"ov":5199,"Ġf":5200,"ĠìĹĺ":5201,"êµ¬ëĿ¼":5202,"Ġì¢Į":5203,"ĠìĹĨìĹĪëįĺ":5204,"ì¹Ļ":5205,"ìłĦëĵľ":5206,"ê·¸ëĮĢë¡ľ":5207,"Ġì¢ĭìķĺì§Ģë§Į":5208,"ĠìĺĪìłĦìĹĲ":5209,"ĠìĺĪê³łíİ¸":5210,"Ġìļ°ë¦¬ê°Ģ":5211,"Ġëª¨ë¥´ê²łì§Ģë§Į":5212,"ìĤ¼ë¥ĺ":5213,"Ġíŀĺëĵ¤ëĭ¤":5214,"ê°Ķëĭ¤":5215,"ĠìķĶíĬ¼":5216,"Ġì±ĦëĦĲ":5217,"Ġë°ĭë°ĭ":5218,"Ġ!!!":5219,"ĠìĹħ":5220,"ìķĦìī¬":5221,"ĠìķĦëĵ¤":5222,"íķ´ì§Ģ":5223,"Ġë³´ê¸´":5224,"Ġë³´ìĿ¸ëĭ¤":5225,"ìłĲìĪĺ":5226,"ìłķìĿĺ":5227,"ìłģìĿĢ":5228,"Ġìĭľìĭľ":5229,"íķ¨ìĿĢ":5230,"ĠìłĦìŀĳ":5231,"ĠìķĬìĿĦê¹Į":5232,"Ġë¬´ì²Ļ":5233,"ìĭ¤íķľ":5234,"Ġë§İê³ł":5235,"Īëį°":5236,"Ġì§Ģë£¨íķĺê²Į":5237,"ë³´ê³łìĭ¶ìĿĢ":5238,"ãħİãħİãħİãħİ":5239,"ë¬¼ìĿ´":5240,"Ġì¢ĭìķĺìľ¼ëĤĺ":5241,"Ġê¸°ëĮĢíĸĪëĬĶëį°":5242,"ìĤ¬ëŀĮëĵ¤ìĿĢ":5243,"ĠíĬ¹ìĪĺ":5244,"Ġíİ¸ê²¬":5245,"ĠíĥĢìŀĦ":5246,"ĠìĽĥìĿĮìĿ´":5247,"Ġê°ĲìłķìĿĦ":5248,"VD":5249,"ìĩ":5250,"Ġìį¼":5251,"ìŀŃ":5252,"ìļĶìĿ¼":5253,"Ġë³´ë©°":5254,"ìļ©ìľ¼ë¡ľ":5255,"íĸĪëĤĺ":5256,"íĸĪìĸ´":5257,"Ġëª¨ë¥¼":5258,"ìħĢ":5259,"ê²łìĬµëĭĪëĭ¤":5260,"Ġëª»íķľëĭ¤":5261,"Ġë©ĺ":5262,"Ġìļ°ì£¼":5263,"ìŀ¬ë°ĮëĦ¤ìļĶ":5264,"ĠìĽĥê¹Ģ":5265,"ìĹĩëĭ¤":5266,"ĠíĨ°":5267,"ë°ĽìĿĢ":5268,"ëĺĳ":5269,"ëıħíĬ¹":5270,"ĠìŀĬìĿĦ":5271,"ĠìĿ´ìľłë¥¼":5272,"ì¸µ":5273,"ĠëłĪìĿ´":5274,"ĪëįĶëĭĪ":5275,"Ġì¼ĢìĿ´ë¸Ķ":5276,"Ġìĸ´ë¦°ìĿ´":5277,"Ġë²Įìį¨":5278,"ì¥¬":5279,"Ġëįķë¶ĦìĹĲ":5280,"ĠíĹĲë¦¬ìļ°ëĵľ":5281,"Ġëī´":5282,"ãħ£":5283,".........":5284,"ĠìĭľëıĦ":5285,"ë²Ħê·¸":5286,"ë²Ħë¦¬ëĬĶ":5287,"ë²ĦìĬ¤íĦ°":5288,"ë³´ê³łìĭ¶ëĭ¤":5289,"ĠìĭłíĮĮ":5290,"Ġì£½ìĿĦ":5291,"Ġê´Ģíķľ":5292,"ë¶ĪìĮį":5293,"Ġìłķìĭłë³ĳ":5294,"ĠìŀĬíĺĢì§Ģì§Ģ":5295,"Ġì±Ļê²¨":5296,"ĠìĽĢì§ģ":5297,"ĻëĭĪëĭ¤":5298,"ìĿ¸ê³¼":5299,"Ġëĭ¤ìĸĳ":5300,"íķĺê³łìŀĲ":5301,"ĠëĮĢíķ´ìĦľ":5302,"ĠëĬĲìĻĢë¥´":5303,"ì¢ĭìĿĮ":5304,"Ġëĸ¡":5305,"ëĬĲëĭĪ":5306,"0000":5307,"Ġë¡ľê·¸ìĿ¸":5308,"ìŀ¬ë¯¸ìŀĪëĭ¤":5309,"ëŁ¬ëĶĶ":5310,"ìĸ´ë¦´ìłģ":5311,"ëİĢ":5312,"Ġë§¨ëĤł":5313,"ìĸĺê¸°":5314,"ë¯¿ê³ł":5315,"ĠëŁ":5316,"ìĿ´ë¡ľ":5317,"ìĹĲë¡ľ":5318,"ìĸ´ì©Į":5319,"ìĹĨëĦ¤ìļĶ":5320,"ìĥģìĺģ":5321,"ìĺ¤ìĺ¤":5322,"ĠìĦ¼":5323,"Ġë´¤ìĿĦëķĮ":5324,"Ġìŀ¬ë°Įëĭ¤ê³ł":5325,"ë£¨ìĬ¤":5326,"Ġë¬´ìĸ¸":5327,"Ġì²Ļ":5328,"ì²´ê°Ģ":5329,"Ġë¹ĦíĮĲ":5330,"ìķĪíĥĢ":5331,"Ġì¢ĭìķĦíķ´ìĦľ":5332,"ĠìŀĳíĴĪìĿĢ":5333,"ĠëĦĺì¹ĺëĬĶ":5334,"íĸīë³µ":5335,"Ġë³´ìĹ¬ì£¼ê³ł":5336,"ìĸ¸ëĭĪ":5337,"Ġë³¼ë§Įíķĺëĭ¤":5338,"ĠëĮĢìĤ¬ê°Ģ":5339,"ë¦¬ìĬ¤ë§Ī":5340,"Ġì¢ĭê²łìĸ´ìļĶ":5341,"Ġì§ģìłĳ":5342,"ĠìĥĪë¡Ń":5343,"om":5344,"ªħ":5345,"ìĿ´íģ¬":5346,"¬ëŁ¬":5347,"ë¦¬íı¬":5348,"ìĺ¬ë¦¬":5349,"ìķ¼ë§Ĳë¡ľ":5350,"Ġì¢ĭê²Į":5351,"ìŀĪëĤĺ":5352,"¬ëŀĺ":5353,"ëħ¼":5354,"ë£©":5355,"ìĻĢìĿĺ":5356,"ëł¤ìļĶ":5357,"ìĺĢê³ł":5358,"ĠìĿ¼íĴĪ":5359,"ĠìĤ¬ëŀĳìĿĺ":5360,"ĠìĥģìĹħ":5361,"ëĸĦ":5362,"Ġê²°ê³¼":5363,"ëĭĪë¡ľ":5364,"Ġì§ĳìĹĲìĦľ":5365,"ĠìĭłìĦłíķľ":5366,"ĠìĹīìĦ±íķľ":5367,",.,.":5368,"ĠìķĪíĥĢê¹Ŀëĭ¤":5369,"ĠëĿ":5370,"¬ëĵľ":5371,"ĠìĿ´ìļ©":5372,"ìļĶìĨĮ":5373,"ìķĦëĤ´":5374,"ìłĲìĿ´ëĭ¤":5375,"ìłķìļ°":5376,"ëĶĺ":5377,"ìłľëĮĢë¡ľ":5378,"Ġìĺ¤ë°Ķ":5379,"Ġìĵ°ëłĪê¸°ëĭ¤":5380,"ì¢Ģë¹Ħ":5381,"ĠëĬĲê»´ì§Ħëĭ¤":5382,"ì¸¡":5383,"ëĳĳ":5384,"Ġì«Į":5385,"Ġíĭ°ë¹ĦìĹĲìĦľ":5386,"Ġë¹Įëł¤":5387,"ĠëŁ¬ëĭĿíĥĢìŀĦ":5388,"Ġë®¤ì§Ģì»¬":5389,"ì¦Īë¥¼":5390,"ĠI":5391,"ìĿ´ë¦Ħ":5392,"ê¸°ìĹĲëĬĶ":5393,"ĠìķĦíĶĶ":5394,"Ġ12":5395,"ĠìĨĶì§ģ":5396,"Ġëª¨ë¥´ê²Į":5397,"ĠëĶ°ë¡ľ":5398,"ë¨¹ëĬĶ":5399,"ĠìĹ°ê¸°ëł¥ëıĦ":5400,"Ġê·¸ëłĩì§Ģ":5401,"ëĦĪìĬ¤":5402,"ĠìŀĪìĹĪì§Ģë§Į":5403,"Ġthe":5404,"Ġëĥī":5405,"¨¼":5406,"..^^":5407,"ãħĹ":5408,"íķĺëįĺëį°":5409,"ìĦľëıĦ":5410,"ìłĲìłķëıĦ":5411,"ìĤ¬ëĿ¼":5412,"ĠìĹĨì§Ģ":5413,"ĠëĤĺë§Į":5414,"ì§ĦìĿ´":5415,"Ġíķľë§ĪëĶĶ":5416,"Ġê¸°ìĪł":5417,"ëł¤ëĤĺ":5418,"íĸĪëĭ¤ê³ł":5419,"ĠëįĶëŁ¬ìļ´":5420,"ĠëĵľëŁ½ê²Į":5421,"Ġëĵľë¦½ëĭĪëĭ¤":5422,"ìĥĿíĻľ":5423,"ĠìĹ¬íĸī":5424,"ĠìŀĳìĿĢ":5425,"ë°Ķë¡ľ":5426,"Ġì£½ìĿ´ê³ł":5427,"ĠíıīìĿ´":5428,"ĠëĪĦêµ¬ëĤĺ":5429,"ĠíĤ¬ë§ģíĥĢìŀĦ":5430,"ĠãħĪ":5431,"Ġì§Īì§Īëģ":5432,"Ġë²łìĬ¤íĬ¸":5433,"Ġë¬´ìĦŃëĭ¤":5434,"Ġê¹¨ëĭ¬":5435,"Ġë¶ĪëŁ¬":5436,"Ġì¦Ĳê±°ìļ´":5437,"íķ´ì§Ħëĭ¤":5438,"ĠìĹĨìĸ´ìļĶ":5439,"ìļ´ëĵľ":5440,"Ġ18":5441,"Ġìŀĺíķĺê³ł":5442,"ìŀĦìĿĦ":5443,"ë³¸ìĺģíĻĶ":5444,"íı´":5445,"ĠìĿ¼ìĿ´":5446,"ëªħìĿĦ":5447,"Ġì£½ìĿĢ":5448,"íĽĦíļĮ":5449,"ì»¥":5450,"ĠëĤ¨ìŀĲê°Ģ":5451,"Ġíĺ¸ëŁ¬":5452,"ëĨĪëĵ¤":5453,"Īë²ķ":5454,"Ġë¬ĺìĤ¬":5455,"zz":5456,"ĠìĿ´ëķĮ":5457,"ìĸ´ëĬĲ":5458,"ìķĦëĬĶ":5459,"ë³´ëĦ¤":5460,"íĨłë¡Ŀ":5461,"ĠìĿ¸íķ´":5462,"ĠìŀĲì£¼":5463,"ĠìĤ¬ëŀĮëĵ¤ìĿĺ":5464,"ì¼ĵ":5465,"Ġë¶Īì¾Į":5466,"ĠìĻĦìłĦíŀĪ":5467,"Ġë°ľë¡ľ":5468,"Ġìĵ°ëŀĺê¸°":5469,"Ġìŀĳê°Ģê°Ģ":5470,"ĠìĿ´ìģĺëĭ¤":5471,"ì·¨íĸ¥":5472,"ë½ķ":5473,"22":5474,"©ĺ":5475,"Ġãħĩãħĩ":5476,"İģ":5477,"ìĹĳ":5478,"ê¸ĭ":5479,"ìĸ´ìĥī":5480,"ë©ľë¡ľ":5481,"ìŀĪìĸ´ìĦľ":5482,"ĠìĺĨ":5483,"ë´ħëĭĪëĭ¤":5484,"ìłľë¡ľ":5485,"Ġê¸°ê°Ģ":5486,"ìŀĦìĬ¤":5487,"ê°ĲìĿĢ":5488,"Ġë³¼ìĪĺìŀĪ":5489,"Ġìĭ¶ìĿĦ":5490,"ìķłê°Ģ":5491,"ĠìĤ¬ëŀĳìĬ¤ëŁ¬ìļ´":5492,"ìĨįìĿĺ":5493,"Ġê³łë§Ī":5494,"Ġë°Ķê¾¸":5495,"ĠíŀĺìĿ´":5496,"Ġê°ĢìĬ´ìķĦ":5497,"ìŀ¥ë©´ìĿĢ":5498,"Ġê°Ħëĭ¤":5499,"ĠìĭłìĦłíķĺê³ł":5500,"Ġì¶ĶìĸµìĿĺ":5501,"Ġë³´ìķĺìĬµëĭĪëĭ¤":5502,"Ġê°Ģì¹ĺê°Ģ":5503,"ĠìĺĪë»Ĳ":5504,"ë°©ìĤ¬ìĪĺ":5505,"Ġëł":5506,"ëĭī":5507,"ìĿ´ë²Ī":5508,"ìĹĪëĥĲ":5509,"ĠìĺģíĻĶëĦ¤":5510,"ĠìķĦíĶĦ":5511,"Ġê·¸ëĭ¤ì§Ģ":5512,"Ġìĸ´ì²ĺêµ¬ëĭĪ":5513,"Ġë§ĮëĤĺ":5514,"íİľ":5515,"ìĦ¸ê¸°":5516,"Ġëª»ìĥĿ":5517,"ëħĦë§ĮìĹĲ":5518,"ëĲĺëĦ¤ìļĶ":5519,"ë³´ê³łëĤĺìĦľ":5520,"íħĿ":5521,"ëĤ¨ëĬĶ":5522,"ê²¨ì§Ħ":5523,"ĠìĦ±ìĿ¸":5524,"ëĲ©ëĭĪëĭ¤":5525,"Ġê³¼ìŀ¥":5526,"ĠëĶ±íŀĪ":5527,"ì²ĺìĿĮìĹĶ":5528,"Ġë¶Ģì¡±íķĺëĭ¤":5529,"Ġìĭ¶ìĿĢëį°":5530,"Ġë¬¸ìłľê°Ģ":5531,"Ġë¿ĲìĿ´ëĭ¤":5532,"ĠìĻľìĿ´ëŀĺ":5533,"ĠìĦ¹ìĬ¤":5534,"ìĸ´ëł¸ìĿĦ":5535,"ĠëĬĲê¼Ī":5536,"ì§ĢëıĦìķĬê³ł":5537,"íľĺ":5538,"ĦìĥĪ":5539,"ŃëĭĪëĭ¤":5540,"ìĹĲíľ´":5541,"Ġê·¸ê±°":5542,"ìłĲì¤Į":5543,"ìĬ¤íĭ°":5544,"ìĬ¤ì¼Ģ":5545,"Ġë´¤ìĿĦ":5546,"íķ¨ìĿĺ":5547,"Ġì¤¬":5548,"ìĭłë¶Ħ":5549,"Ġëª»íķ¨":5550,"Ġê°ľë¿Ķ":5551,"Ġë©Ī":5552,"ìĽĲìĿĺ":5553,"ëĲĺìĹĪëĭ¤":5554,"ë¦¬ëį":5555,"ìķłëĭĪë©ĶìĿ´ìħĺ":5556,"ĠëªħíĴĪ":5557,"ĠíķĺëĤĺìĿĺ":5558,"ë³¼ë§Įíķľ":5559,"Ġë³´ìĹ¬ì¤Ģëĭ¤":5560,"Ġëĭ¨ì§Ģ":5561,"ëĬ¥ëł¥":5562,"ë§Įëĵ¤ìĸ´":5563,"ëıħë¦½":5564,"ĠìĨĮìŀ¬ê°Ģ":5565,"Ġê¸´ìŀ¥ê°ĲëıĦ":5566,"ĪëĶ§":5567,"Ġë¬´ìĹĩìĿĦ":5568,"ì¶©ê²©":5569,"ê¹Ĭê²Į":5570,"ĠíķĻìĥĿ":5571,"ĠíŀĪìĸ´ë¡ľ":5572,"Ġë©įì²Ńíķľ":5573,"ìĿ½":5574,"íĻĢ":5575,"ëĤĻ":5576,"ëį¤":5577,"ĠìĿ´ëģĮ":5578,"ë¡ľëĵľ":5579,"ëĦ¹":5580,"ë°ĸ":5581,"ë¶ķ":5582,"ĠìĹĨìĬµëĭĪëĭ¤":5583,"ĠìĥĪëģ¼":5584,"Ġìĺ·":5585,"ìĦ±ê³¼":5586,"Ġìŀ¬ë°ĮëĦ¤":5587,"ĠìĥĿê°ģìĹĨìĿ´":5588,"ê´ľ":5589,"Ġë¯¸ëĵľ":5590,"ë²Ħë¦¼":5591,"ĠìŀĪëĬĶì§Ģ":5592,"ĠíķĺëĬĶê±°":5593,"ì´Į":5594,"ĠìľĦíķ´ìĦľ":5595,"ĠìĨįìĹĲìĦľ":5596,"ĠìłķëıĦìĿĺ":5597,"ëıĪì£¼ê³ł":5598,"ĠìĿ¸ìĥģìłģìĿ´":5599,"Ġê¿ĪìĿĦ":5600,"ĠëĽ°ìĸ´ëĦĺ":5601,"ĠìĿ´ìłķëıĦë©´":5602,"ĠìķĮê²łëĬĶëį°":5603,"Ġë°ĳ":5604,"ìĹ°ìĿ´":5605,"ĠìĥĿê°ģíķ¨":5606,"ëħĦìĿĺ":5607,"Ġë¹Ħíķĺë©´":5608,"ĠìķĪë´Ĳ":5609,"Ġìĥģê´Ģ":5610,"ì¶Ķê¸°":5611,"ê²¨ìĦľ":5612,"ĠìĿ´íķ´íķĺê¸°":5613,"ĠëĨĴê²Į":5614,"ë²Ķì£Ħ":5615,"ê²ģëĭĪëĭ¤":5616,"ĠëĶĶì¦ĪëĭĪ":5617,"Ġì²ŃìĨĮëħĦ":5618,"ê²ĥê°ĻìķĦìļĶ":5619,"ĠíĴįê²½":5620,"ĠíĪ¬ìŀĲ":5621,"Ġì§ĿìĿ´":5622,"Ġì°Įì§Ī":5623,"Ġìĸ´ë¦´ëķĮ":5624,"ĠìĿĳìĽĲ":5625,".,":5626,"¬ĺ":5627,"ëĮĵê¸Ģ":5628,"Ġì¯":5629,"ĠìµĿìĺ¤":5630,"ëĭĮ":5631,"ëĤĺìĺ¬":5632,"ĠíķĺìĿ´":5633,"ĠìŀĪêµ¬ëĤĺ":5634,"ê·¸ëĤĺë§Ī":5635,"Ġê°Ģë³įê²Į":5636,"íĮĶìĿ´":5637,"ëŁ¬ìĽĮ":5638,"ãħĭãħĭãħĭãħĭãħĭãħĭãħĭ":5639,"Ġë§ĲìķĦë¨¹":5640,"Ġíķ´ëĿ¼":5641,"ĠìķĦê¹Įìļ¸":5642,"ì¼ĢìĿ´ë¸Ķ":5643,"ìĶ¬ìĿ´":5644,"Ġëª¨ë¥´ê²łìĿĮ":5645,"ĠìıŁ":5646,"Ġì¤ĳìļĶíķľ":5647,"ĠíĥĦíĥĦíķľ":5648,"Ġê¹ľì§Ŀ":5649,"ìĿ´ëıĦ":5650,"ëĭĪëĭ¹":5651,"ìĭľìĽĲ":5652,"ìĿĮìĿ´":5653,"ëª¬":5654,"ĠìłĦë°ĺ":5655,"Ġìļ°ëł¤":5656,"Ġìŀ¬ë¯¸ìĹĨê²Į":5657,"ë°ľìĹ°ê¸°":5658,"ĠìĦ±ê²©":5659,"Ġë©ĭìŀĪëĭ¤":5660,"000":5661,"ëĵľëĿ¼ë§Īê°Ģ":5662,"Ġì§ľì¦ĿëĤľëĭ¤":5663,"ĠìĪĺì¤ĢìĿĺ":5664,"Ġì¹ĺê³ł":5665,"ëķħ":5666,"ĠêµĲìľ¡":5667,"ĠíĥĢìĿ´":5668,"Ġìłľìŀĳë¹Ħ":5669,"ìĿ¸ê°ĦìĿĺ":5670,"âĺĨ":5671,"¬¸":5672,"Ńìłľ":5673,"ĠëĮ":5674,"ìĿ´ìģĺ":5675,"Ġìķ¤":5676,"ê¸°ì§Ģ":5677,"ë§ĮìĿĢ":5678,"Ġë³´ëł¤ê³ł":5679,"ì£¼ê°Ģ":5680,"ĠìłķìĿĺ":5681,"Ġìĸ´ìļ°":5682,"ĠëĤ´ë©´":5683,"ìķĺìĿĦ":5684,"ìŀĦìĥĪ":5685,"Ġë³¼ê±°":5686,"Ġíķ´ê²°":5687,"Ġíķłë§ĲìĿ´":5688,"Ġê´Ģìĭ¬":5689,"ìĤ´ìĿ¸":5690,"íĪ¬ë":5691,"ĠëĤ¨ìŀĲìĿĺ":5692,"Ġë°ĽìĿĦ":5693,"ĠìºĲë¦ŃíĦ°ê°Ģ":5694,"ìĹ¬ëŁ¬ë":5695,"ê·ĢìĹ½":5696,"ĠìĨĮë¦ĦìĿ´":5697,"ëĮĢíķľë¯¼êµŃ":5698,"Ġê²¨ìļ°":5699,"Ġê¹¨ëĭ«ê²Į":5700,"ë·":5701,"ĪĦ":5702,"ìĿ´ëĵ¤":5703,"ê°Ģë©´":5704,"ìĿ¸ê²ĥ":5705,"ê¹ģ":5706,"ê±°ìĿĺ":5707,"ìŀĲëĵ¤ìĿ´":5708,"ë¶Ģìŀĳ":5709,"ĠìŀĲìĤ´":5710,"Ġìļ°ìłķ":5711,"Ġëħ¸ëĭµ":5712,"ê°ķíĺ¸":5713,"Ġë°©ìĺģ":5714,"Ġì°įìĸ´":5715,"Ġ50":5716,"ìŀ¬ë°ĭëĭ¤":5717,"Ġíĸīë³µíķľ":5718,"Ġê°ľìĹ°ìĦ±ìĿ´":5719,"Ġê°ľìĹ°ìĦ±ëıĦ":5720,"ìĺģìĥģë¯¸":5721,"Ġëĺĳê°ĻìĿĢ":5722,"Īë²½ìĹĲ":5723,".^^":5724,"ĠìĹ¿":5725,"ë¦¬ì¹´":5726,"ëłĲ":5727,"Ġë³´ìŀĲ":5728,"ĠìŀĪìĹĪëĬĶëį°":5729,"íĸĪìľ¼ëĤĺ":5730,"ĠìķĬëĦ¤ìļĶ":5731,"ĠìĿ´ëŁ°ìĺģíĻĶê°Ģ":5732,"ëĲĺê²Į":5733,"Ġëĭ¹ìĹ°":5734,"ĠíĹĪìĦ¸":5735,"ì»·":5736,"ĠëĤ®ê²Į":5737,"Ġë¹łì§Ħ":5738,"ìķĦìĿ´ê°Ģ":5739,"ìķ½íķľ":5740,"Ġìķŀìľ¼ë¡ľëıĦ":5741,"ë³´ì§Ģë§Ī":5742,"Ġêµ°ëĮĢ":5743,"ĠìķĦë¦Ħëĭ¤ìĽĢ":5744,"Ġì§Ŀíīģ":5745,"Ġíı¬ë¥´ëħ¸":5746,"40":5747,"ĠãĦ±":5748,"..;;":5749,"Ġíĳ¸":5750,"ë¡ľë§Į":5751,"ìķĦìłĢìĶ¨":5752,"Ġê·¸ê±´":5753,"Ġëĭ¥":5754,"ë³´ìŀĲ":5755,"Ġë°ĳìĹĲ":5756,"Ġë§Įíķľ":5757,"ê·¸ë¦¼":5758,"ì¹ĺê°Ģ":5759,"íķĺëĬĶê±´":5760,"ĠìķĪìĵ°":5761,"ĠìķĮìĪĺ":5762,"Ġì§Ģë£¨íĸĪëĭ¤":5763,"ëħ¸ëĭµ":5764,"ìĹĨëĬĶìĺģíĻĶ":5765,"ĠëĤĺìĺ¤ì§Ģ":5766,"Ġë¶Ħëĵ¤ìĿĢ":5767,"ĠëªħìŀĳìĿ´":5768,"Ġë¡ľë´ĩ":5769,"Ġìľłì¹ĺíķĺëĭ¤":5770,"ĠìĿĮìķħê³¼":5771,"Ġíķľë²Īì¯¤":5772,"Ġëĳĺì§¸":5773,"Ġì©Ĳëĭ¤":5774,"ĠëĭĪì½ľ":5775,"ìĦ¸ìĥģìĹĲ":5776,"ĠMì°½":5777,"OOOê¸°":5778,"Ġì£½ëĬĶì¤Ħ":5779,"³¸":5780,"¬ëłĪ":5781,"ìĸ´ë¦¬":5782,"ĠëĤ©":5783,"ìĺģíĻĶìĿ¸ëį°":5784,"ìĿĮìĿĦ":5785,"Ġëĭ¤ëĭĪ":5786,"Ġìĸ´ë¨¸ëĭĪ":5787,"Ġìĺ¬ë¦¬":5788,"ĠìĿ¸ëĤ´":5789,"ë¬¼ìĿĦ":5790,"Ġìĺģíĺ¼":5791,"ĠíĥĲ":5792,"Ġê°ķëł¥":5793,"Ġë§Įëĵ¤ìĸ´ëıĦ":5794,"Ġëĸ¨ìĸ´ì§Ħëĭ¤":5795,"Ġìķ¼ëıĻ":5796,"Ġìłľëª©ìĿ´":5797,"Ġê¸°ëĭ¤ëł¤":5798,"ĠìķĪë³¼":5799,"ëłĪë©ĺ":5800,"ìĺĽëĤłìĹĲ":5801,"ìĭľì²Ńë¥ł":5802,"Ġìĺ¤ëŀľë§Į":5803,"ìĹł":5804,"ĠíĦ":5805,"ĠìķĦìĺĪ":5806,"Ġë³´ëĭ¤ëĬĶ":5807,"ë³´ëĭĪê¹Į":5808,"ìłķìłģìĿ¸":5809,"ìŀ¥ìĿĦ":5810,"Ġì§Ģêµ¬":5811,"íĨ±":5812,"ë¯¸ëĦ¤":5813,"Ġê¸°íļĮ":5814,"ëł¤ëĭ¤ê°Ģ":5815,"ë¬µ":5816,"êµ¬ìĦ±":5817,"Ġìŀĺìĸ´ìļ¸":5818,"ĠìĥĿê°ģëĤĺìĦľ":5819,"Ġìĺ¤ëŀ«":5820,"Ġê¹İ":5821,"ëĭ¤ëĬĶê±°":5822,"ëĭ¤ëĬĶê±¸":5823,"ë´¤ëĦ¤ìļĶ":5824,"ĠíķĺëĬĶê²Į":5825,"ìĹĲê²ĮëĬĶ":5826,"ë¡Ŀë²ĦìĬ¤íĦ°":5827,"ĠìľĦëĮĢíķľ":5828,"ĠíķľêµŃìĺģíĻĶëĬĶ":5829,"ì§Ģë£¨íķ´":5830,"íĨµëł¹":5831,"ĠìĹ¬ìļ´ìĿĦ":5832,"ìķ½ê°Ħ":5833,"ĠíĨµì¾Į":5834,"ĠëĬĲëĤĦìĪĺ":5835,"ĠíĿĶíķľ":5836,"ĠíķĦë¦Ħ":5837,"70":5838,"~!!!":5839,"ëĽ°":5840,"Ġ/":5841,"Ġl":5842,"ĠìŀŃ":5843,"ë¦¬íķľ":5844,"Ġì§Īë":5845,"ìľ¼ë¡ľëĬĶ":5846,"íĺĪ":5847,"ì¶¤":5848,"ĠëĮĢë³¸":5849,"ì¢Į":5850,"Ġìµľê³łìŀħëĭĪëĭ¤":5851,"ë¬¸íĻĶ":5852,"íĤ¬":5853,"Ġê°ĲíĿ¥":5854,"ĠíĮĮìĿ´":5855,"ìĿ´ëŁ°ê²Į":5856,"ĠìĹ°ì¶ľê³¼":5857,"ĠìĦ¸ëł¨":5858,"íĺķëĭĺ":5859,"ëĭĪë¥¼":5860,"ê°ĲëıĻìłģìĿ¸":5861,"Ġê°ĢìĬ´ìĹĲ":5862,"Ġ70":5863,"ë³ĳë§Ľ":5864,"Ġê½ĥ":5865,"Ġë¬´ìĹĩìĿ¸ì§Ģ":5866,"ĠëĳĺìĿ´":5867,"Ġì»¤íĶĮ":5868,"Ġê°ĸê³ł":5869,"ëħĦëıĦìĹĲ":5870,"ĠìĺĪìģĺê³ł":5871,"íĭ°ë¹ĦìĹĲìĦľ":5872,"¸Ķ":5873,"íĻĶë©´":5874,"ì§Ģë©´":5875,"ìĭ¬ë":5876,"ê²ĮìļĶ":5877,"íķ´ì£¼ìĦ¸ìļĶ":5878,"Ġê·¸ê²ĥëıĦ":5879,"ĠíķĺëĬĺ":5880,"Ġë´ħëĭĪëĭ¤":5881,"ì§Ħìĭ¤":5882,"ìŀĪìĹĪëĭ¤":5883,"ìłĦë¬¸":5884,"Ġì§ĢëĤĺëıĦ":5885,"ëĵľìĭľ":5886,"ĠëıĦìłĦ":5887,"ĠìĪĺê³ł":5888,"ĠìĥĿê°ģíķĺë©´":5889,"ĠìķĦëĭĻëĭĪëĭ¤":5890,"Ġë§Įëĵ¤ëĭ¤ëĭĪ":5891,"ìĦłìĥĿ":5892,"Ġìĵ°ëłĪê¸°ê°ĻìĿĢ":5893,"Ġíĥģ":5894,"ì¢ħìĿ¼":5895,"ĠìĹ´ë°Ľ":5896,"ĠìŀĲì²´ëĬĶ":5897,"Ġì¹´ë¦¬ìĬ¤ë§Ī":5898,"íĻįì½©":5899,"ĠìĹ¬ê¸°ìĦľ":5900,"Ġì°©íķľ":5901,"ĠíĹĲë¦¬ìĽĥ":5902,"ìķĪëĲ¨":5903,"ëłĪë©ĺíĥĢ":5904,"°ľ":5905,"ëĿ":5906,"ë©į":5907,"ìľĮ":5908,"ì¤¬ëĭ¤":5909,"íĺĲ":5910,"ìĹ¬íĸī":5911,"Ġê¸°ëıħêµĲ":5912,"ëķĮëĬĶ":5913,"ĠìĿ¸ê¸°":5914,"ĠìłľìĻ¸":5915,"ëĥĲê³ł":5916,"ë²ĪìĿĢ":5917,"Ġë°°ìļ°ë¥¼":5918,"Ġì¡°ìŀĳ":5919,"Ġë°ĺê°ľëıĦ":5920,"ĠíķłìĪĺ":5921,"Ġìļ¸ì»¥":5922,"ĠíĬ¹ìĿ´":5923,"ìĿ´ê±´ëŃĲ":5924,"Ġìļ°ë¦¬ìĿĺ":5925,"ĠìłĦê°ľëıĦ":5926,"ìŀ¡ê³ł":5927,"ê¸°ëĮĢìķĪíķĺê³ł":5928,"Ġìŀłê¹Ĳ":5929,"Ġê¸´ìŀ¥ê°ĲìĿ´":5930,"ĠêµŃëĤ´":5931,"????????":5932,"Ġëĵ£ê³ł":5933,"en":5934,"ª¼":5935,"ëĬĶëĮĢ":5936,"ĠìĿ´ëıĦ":5937,"ë§Įëĭ¤":5938,"ìŀĲëĵ¤ìĿĺ":5939,"ĠëĤ´ìĿ¸ìĥĿ":5940,"Ġê¸°ì¤Ģ":5941,"ë¥´ê²Į":5942,"Ġë§Įëĵ¤ë©´":5943,"ë´¤ì§Ģë§Į":5944,"Ġë°ĶëŀįëĭĪëĭ¤":5945,"ëĸ¡":5946,"ĠìĤ´ëł¤":5947,"Ġíı´":5948,"ìĶ¨ëĬĶ":5949,"ĠíĸĪìľ¼ë©´":5950,"ê¸ĢìİĦ":5951,"íĺķëŀĺ":5952,"ĠëĬĲëĤĮìĿĺ":5953,"ëĶ°ìľĦ":5954,"ê·¸ëŀĺíĶ½":5955,"âĻ¥âĻ¥âĻ¥":5956,"Ġì¶ľìĹ°ì§Ħ":5957,"ìłĲëĮĢëĬĶ":5958,"ĠìŀĲìĭłìĿ´":5959,"ĠëĬĲê¼Īëĭ¤":5960,"ë¦¬íı¬íĦ°":5961,"ĠG":5962,"Ġ~~":5963,"ķëĭĪëĭ¤":5964,"ì§ĢìļĶ":5965,"ĠëĤĻ":5966,"ĠìķĦíĶĪ":5967,"ìĭľìĤ¬íļĮ":5968,"ĠíķĺëĦ¤":5969,"Ġëĭ¤ë¥¼":5970,"ê±´ë§Į":5971,"ĠìĬ¤íģ¬ë¦°":5972,"ë¯¸ìĬ¤":5973,"ê²ĥê°ĻìĿĢ":5974,"ë¶ĦìĿĢ":5975,"ĠìķĪìĹĲ":5976,"ĠëĤ¨ìĿĢ":5977,"íĬ¸ìĿĺ":5978,"ì¢ĭìķĺëĭ¤":5979,"ĠëģĿìĿ´":5980,"Ġë´Ĳì¤Ħ":5981,"ĠëħĦ":5982,"íħĮìĿ´":5983,"ĠìŀĳíĴĪìĦ±":5984,"Ġíĥĳ":5985,"Ġëĸ¨":5986,"Ġíİ¼":5987,"ĠìķĦìĿ´ëıĮ":5988,"ĠìŀĶëľ©":5989,"Ġë°ķì§Ħ":5990,"ĠìĿ¼ë³¸ìĺģíĻĶ":5991,"ĠìĿ´ìłľìĦľìķ¼":5992,"ë³Ħë¡ľëĭ¤":5993,"ĠìŀĬì§Ģ":5994,"Ġë¹¼ë©´":5995,"ëłĪìĿ´ìħĺ":5996,"Ġëĭ¨ìĪľíķľ":5997,"ë¶Īë¥ľ":5998,"ost":5999,"¥ë¯¸":6000,"ãģ":6001,"ìĿ´ìĬ¨":6002,"íķĺêµ°":6003,"Ġìĭ¬ë¦¬ë":6004,"ìłĲìĿ´ìĥģ":6005,"Ġìŀ¬ë°©":6006,"ì²©":6007,"Ġëĭ¤ë£¨":6008,"ìŀ¥ìķł":6009,"ëĵľë¥¼":6010,"ëĵľë¦½ëĭĪëĭ¤":6011,"Ġìµľê°ķ":6012,"ĠëĮĢíĻĶ":6013,"ì¤ĳìĿ´":6014,"ê°Ļê³ł":6015,"íıīìłĲìĿĦ":6016,"ĠíķĺëĤĺê°ĻìĿ´":6017,"ìĿ´ëŁ°ê±¸":6018,"ìĻĶëĭ¤":6019,"ëĭĪëİģ":6020,"ĠìĦ¤ëĵĿ":6021,"ĠìĿ¸ê°ĦìĿ´":6022,"Ġë¶ĦìľĦê¸°ê°Ģ":6023,"ĠìĭľëĮĢë¥¼":6024,"ĠíĥĦìĥĿ":6025,"íĦ¸":6026,"ëĤ®ìĿĢ":6027,"íĮĮìĿ´ìĸ´":6028,"ĠìķĪíĥĢê¹Įìļ´":6029,"íĵ¨íĦ°":6030,"ĠëŁ°":6031,"Ġg":6032,"ìĸ´ì§Ģ":6033,"ìĸ´ìĹ¬":6034,"ëĿ¼ê°Ģ":6035,"ìķĦëĭĪë":6036,"íķ´ì£¼ê³ł":6037,"ë¶Ļ":6038,"ìĥģìĿĺ":6039,"ìľ¼ë¡ľë§Į":6040,"Ġìĸ´ì§Ģ":6041,"ê°ģë³¸":6042,"ìłľìĿ¼":6043,"ĠìĹ°ê¸°ìŀĺ":6044,"ĠìľĦë¡ľ":6045,"ê°ľëĬĶ":6046,"ĠìĥĿê°ģíĸĪëĬĶëį°":6047,"ĠìĿ¸ëıĦ":6048,"ìĹĪëĭ¤ëĬĶ":6049,"ë²Ħëł¤":6050,"ĠìĤ¬ê³ł":6051,"Ġìŀ¬ë¯¸ìŀĪìĹĪìĸ´ìļĶ":6052,"ĠìĤ¬ëŀĳìĿĢ":6053,"ê²½ì°°":6054,"ìĿ´ëŁ°ê±°":6055,"Ġìĸ¼ë§Ī":6056,"ëĤĺìĺ¤ê³ł":6057,"Ġìļķë§Ŀ":6058,"Ġëĭ¬ëĭ¬":6059,"ë¯¸ëĦ¤ìĿ´íĦ°":6060,"´íĵ¨íĦ°":6061,"Ġãħĩ":6062,"ì§Ģë§Ĳê³ł":6063,"ê°ĢìĿĺ":6064,"ê¸°ìłĦìĹĲ":6065,"ëĤĺìģľ":6066,"ë¦¬ìļ°ëĵľ":6067,"ìłĲìĹĲìĦľ":6068,"ìłĲë§ĮìłĲ":6069,"ìļ°ìĹ°íŀĪ":6070,"ìķ¼íķł":6071,"ê³¼ìĦľ":6072,"Ġê°Ģë©´":6073,"Ġê°Ģë²¼":6074,"ìĨĮë£¡":6075,"Ġëĵľë¦¼":6076,"ëħĦìŀĳ":6077,"Ġë§İìķĦìĦľ":6078,"Ġìĭłë¹Ħ":6079,"ĠëĦĺê²Į":6080,"ĠíĶ½":6081,"Ġì½ĶëĤľ":6082,"Ġë°°ìĹŃ":6083,"Ġë§¤ëł¥ìĿĦ":6084,"Ġì§ĳì°©":6085,"Ġëª¨ëĳĲê°Ģ":6086,"ëıĪìĿ´":6087,"Ġëĵ±ëĵ±":6088,"ë§Įíģ¼ìĿĢ":6089,"Ġì§Īë¦¬ì§Ģ":6090,"ê·ĢìĹ¬":6091,"ĠëłĪìłĦëĵľ":6092,"ĠëĨĵê³ł":6093,"Ġì´Īë°ĺìĹĲ":6094,"ìĹīìĦ±":6095,"ì§§":6096,"ëį°ìĿ´":6097,"ëĦĪë":6098,"ĠìķĦì¤Įë§Ī":6099,"ìĺĪë":6100,"ìĥĪë¡":6101,"ìĺģíĻĶìŀħëĭĪëĭ¤":6102,"ë²Ĺ":6103,"ìŀ¥íķľ":6104,"Ġê²ª":6105,"ëĵľë¡ľ":6106,"íĨ°":6107,"ë¶Ģê°Ģ":6108,"ìłĢìĺĪìĤ°":6109,"ë¹Ĺ":6110,"ì¡°ìłĪ":6111,"Ġì¹Ń":6112,"Ġê±°ê¸°ìĹĲ":6113,"ì¤ĦìĿ´ìķ¼":6114,"ëĭĺëĵ¤":6115,"ĠìĤ´ë¦°":6116,"ê²°íĺ¼":6117,"ìĽłì§Ģë§Į":6118,"ĠìĨĲë°ľìĿ´":6119,"Ġëį°ë¦¬ê³ł":6120,"ëįķíĻĶ":6121,"ìĿ¸ì¤ĦìķĮ":6122,"íģ¬ë¡ľ":6123,"ĠìŀĶìĿ¸íķľ":6124,"ë¹¨ë¦¬":6125,"Ġê·¸ëħĢìĿĺ":6126,"ëª°ìŀħëıĦ":6127,"ìĸ´ëĶĶìĦľ":6128,"Ġë±Ģ":6129,"Ġp":6130,"Ġì¸":6131,"ìĹĲëĮĢ":6132,"ìĭľë©´":6133,"ìľ¼ë¦¬":6134,"ë²ĪëįĶ":6135,"ìŀĪìĬµëĭĪëĭ¤":6136,"Ġíķľëªħ":6137,"ëĵľë¦¼":6138,"ĠìłĦìľ¨":6139,"ëłĪìĿ¸":6140,"Ġì£¼ê¸°ëıĦ":6141,"ë¹ĦìĬ·":6142,"Ġë¹Ħë°Ģ":6143,"íĭ¸":6144,"ìłģìĿ´ì§Ģ":6145,"ìµľê³łìµľê³ł":6146,"ĠìĿĺìĻ¸ë¡ľ":6147,"ìĺĪê³łíİ¸":6148,"Ġëĵ¤ê³ł":6149,"ë°°ìļ°ìĿĺ":6150,"ì©Ŀ":6151,"ĠìĹ¬ìŀĲìĿĺ":6152,"ãħľãħľãħľãħľ":6153,"Ġìĵ°ê³ł":6154,"Ġë¶Ģë¶ĦëıĦ":6155,"Ġëĭµëĭµíķĺê³ł":6156,"íķĺíķĺíķĺ":6157,"Ġìĸ´ìļ¸ë¦¬ëĬĶ":6158,"Ġìıĺ":6159,"ìĿ´ìĺĢëĭ¤":6160,"ìĿ´ìĹĪìĿĮ":6161,"íķĺë£¨":6162,"íķĺê¸¸":6163,"Ġìķī":6164,"ĠìĿ´ìĹ°ê±¸":6165,"ëĭĪíį¼":6166,"Ġë³´ëĭ¤ëĭĪ":6167,"ìĥĪë¡ľ":6168,"Ġê·¸ìŀĲì²´":6169,"ê±°ëĵł":6170,"ìŀĲë¡ľ":6171,"ì§ľë¡ľ":6172,"Ġë§ĮëĤ¨":6173,"ìŀ¬ë¥¼":6174,"ê²łëĭ¤ëĬĶ":6175,"Ġë³´ê³łëĤĺë©´":6176,"ĠìĿ¼ê¹¨":6177,"ĠëŃĲëĿ¼":6178,"ë°ĶìĿ´":6179,"ìĿ¸ëį°ëıĦ":6180,"ĠìķĦëĭĪìķ¼":6181,"ì½Ķë©ĶëĶĶ":6182,"ì©Ĳëĭ¤":6183,"ìĽłìĸ´ìļĶ":6184,"..........":6185,"Ġì£¼ìĿ¸ê³µìĿĢ":6186,"Ġë³´ê¸°ìĹĲëĬĶ":6187,"Ġë§İìĿĢëį°":6188,"Ġëĸ¨ìĸ´ì§Ģê³ł":6189,"ĠíĿ¥ë¯¸ë¡ľ":6190,"ĠìĤ´ìķĦê°ĢëĬĶ":6191,"Ġìĭľë¦¬ì¦ĪëĬĶ":6192,"Ġë§Įëĵ¤ìĹĪëĬĶì§Ģ":6193,"ìķĦë¦Ħëĭµ":6194,"Ġìĸ´ì©ĶìĪĺ":6195,"Ġê³µíı¬ë¬¼":6196,"Ġíļ¨ê³¼":6197,"íĻĶëł¤íķľ":6198,"vd":6199,"ĪìĿ´":6200,"ľ©":6201,"ìĿ´ìĺģíĻĶê°Ģ":6202,"ĠìĺģíĻĶíĻĶ":6203,"ĠìĺģíĻĶë³´ëĬĶ":6204,"ëį´":6205,"ëĬĶëį°ëıĦ":6206,"Ġë´ī":6207,"ìłģìŀĦ":6208,"ê·¸ëħĢ":6209,"Ġë´¤ìĿĦê¹Į":6210,"Ġê°Ģì§Ģ":6211,"ë¶Ģë¡ľ":6212,"Ġìľ¡":6213,"Ġë¬´ìĪł":6214,"ĠìĥĿê°ģíķł":6215,"ìĺĢìĸ´":6216,"ë¹Ľ":6217,"Ġíķ´ìĦĿ":6218,"ĠìĽĥê²¼":6219,"Ġì°¸ìľ¼ë¡ľ":6220,"ëŃĲê°Ģ":6221,"ĠíĺĦìĭ¤ìĦ±":6222,"íıīë²Ķ":6223,"Ġëª°ìŀħê°Ĳ":6224,"Ġìľłì¹ĺíķ¨":6225,"ë°Ľê³ł":6226,"Ġê¸¸ê²Į":6227,"ĠìĦ¸ìĥģìĿĦ":6228,"ĠìķĦë¦Ħëĭµê²Į":6229,"ìĭ¸ìĽĢ":6230,"Ġì§Ħë¶Ģíķĺê³ł":6231,"ĠíĮ¨ëŁ¬ëĶĶ":6232,"Ġì¢ĭê²łëĦ¤ìļĶ":6233,"Ġì¿ł":6234,"Ġê°ĲìłķìĿ´ìŀħ":6235,"as":6236,"cg":6237,"Ĩĵ":6238,"Ġëĳ":6239,"ãħĬ":6240,"ì§Ģê¸Īë´ĲëıĦ":6241,"ĠìŀĪëĦ¤":6242,"ĠìĿ´ëŁ´":6243,"ìĸ´ë²Ħë¦°":6244,"ëĭĪê°Ģ":6245,"ìķĦëĵ¤":6246,"ìĿ¸ëĵ¤ìĿĺ":6247,"êµīìŀ¥íŀĪ":6248,"íķ´ì§Ģê³ł":6249,"Ġê·¸ë§Įíģ¼":6250,"ìĬ¤íĤ¤":6251,"ìłķíĻĶ":6252,"ìļ°ê°Ģ":6253,"ìĥģëĭ¹íŀĪ":6254,"ĠìĭľíĤ¤":6255,"Ġê¸°ë°ľ":6256,"êµŃìĺģ":6257,"ĠìĥĿê°ģìľ¼ë¡ľ":6258,"Ġê°ľë§īìŀ¥":6259,"ëĲĺë©´":6260,"Ġì¡°ìŀ¡":6261,"Ġë´¤ëĬĶëį°ëıĦ":6262,"Ġíķłë¨¸ëĭĪ":6263,"Ġì£½ìĿ´ëĬĶ":6264,"ìĺĪìłĦ":6265,"íĮĲíĥĢì§Ģ":6266,"Ġë¬µ":6267,"ĠìĪł":6268,"ĠëıĻìĭľìĹĲ":6269,"ĠìĿ´ê±°ë³´ê³ł":6270,"ĠëıĪìĿĦ":6271,"ìĽłìĬµëĭĪëĭ¤":6272,"ĠìĿ´ìĥģìĿĺ":6273,"íĽĪíĽĪ":6274,"Ġíķľë²ĪëıĦ":6275,"íķľêµŃìĺģíĻĶ":6276,"Ġëħ¸ëŀĺëıĦ":6277,"íķ´ìķ¼ì§Ģ":6278,"Ġë³Ģíĥľ":6279,"ĠëŃĺê¹Į":6280,"ĠìŀĲìĭłìĿĦ":6281,"ĠëĵľëĿ¼ë§ĪëĿ¼":6282,"ĠíĮ¬ìĿ´":6283,"ëĮĦ":6284,"Ġìľłëªħíķľ":6285,"¤ì¼Ģ":6286,"Ġ=":6287,"Ġy":6288,"ëĬĶëĵ¯":6289,"ê°ĢëĦ¤":6290,"ĠìĺģíĻĶìĿ¸ê°Ģ":6291,"ìĸ´ê°ĢëĬĶ":6292,"ĠìķĦëıĻ":6293,"ìłĲì£¼ê³ł":6294,"Ġëĭĺ":6295,"ìĥģíķľ":6296,"ìĺ¤ë¸Į":6297,"ëħķ":6298,"Ġìĸ´ëĳĲ":6299,"Ġì§ĢëĤ¬":6300,"ëĥĪëĭ¤":6301,"Ġìĭľê±¸":6302,"ĠìĬ¤íĮĮìĿ´":6303,"ì¹ĺëħ¸":6304,"íĸĪì§Ģ":6305,"Ġëª¨íĹĺ":6306,"Ġë³¸ê²Į":6307,"ë¹¡":6308,"Ġê°ĲëıĻìĿĺ":6309,"ë¦¬ëĦ¤ìļĶ":6310,"Ġì¡°ìłĪ":6311,"Ġëĭ¤ìĭľëĬĶ":6312,"ĠìĤ´ëĭ¤":6313,"ĠíķĺëĤĺë¡ľ":6314,"ĠìĺĪê³ł":6315,"ê²¨ìļ¸":6316,"íĶ¼ìĬ¤":6317,"ĠìĿ´ê±´ëŃĲ":6318,"ĠìķĦê¹ĮìĽłëĭ¤":6319,"Ġê¹Ģê¸°ëįķ":6320,"Ġìĭ¬ì§Ģìĸ´":6321,"ìĹĩëĬĶëį°":6322,"ìŀ¬ë¯¸ìŀĪê³ł":6323,"Ġëªĩë²ĪìĿĦ":6324,"ĠìĹ°ê¸°ëł¥ìĿĢ":6325,"Ġì¹ĺë°Ģ":6326,"ìĵ°ê³ł":6327,"ĠìĿĺë¯¸ê°Ģ":6328,"Ġëĭµëĭµíķľ":6329,"ì¡¸ëĿ¼":6330,"ê°ĳëĭĪëĭ¤":6331,"ê±°ê°ĻìķĦìļĶ":6332,"ĠìĿĢê·¼":6333,"ëļĿ":6334,"Ġëıĭë³´ìĿ´ëĬĶ":6335,"Ġê²¨ìļ¸":6336,"ë¬ĺíķľ":6337,"ĠëĤĺë¨¸ì§Ģ":6338,"ĠìłĦë¬¸ê°Ģ":6339,"ë¢°ë§¤":6340,"ë·Ķ":6341,"ut":6342,"Ġ;":6343,"Ġë¥¼":6344,"íĻĶìĿ´íĮħ":6345,"Ġíľĺ":6346,"ìłĲìľ¼ë¡ľ":6347,"ìĭľìĺ¤":6348,"ìŀĲìĻĢ":6349,"ìĹĨê²Į":6350,"Ġíķĺê¸¸ëŀĺ":6351,"ì¹Ń":6352,"ìŀĳìĿĢ":6353,"íĥĳ":6354,"Ġìŀ¬ë¯¸ìĻĢ":6355,"Ġê°Ģê³ł":6356,"Ġê°Ģë¥´":6357,"íķĺëĬĶê²ĥ":6358,"ëŀĺê³¤":6359,"ì¤ĳìĹĲìĦľ":6360,"Ġì£¼ê¸°":6361,"ëķĮë¬¸":6362,"ëĵłì§Ģ":6363,"Ġë³¸ê±°":6364,"ĠìĿ´ëŁ°ìĺģíĻĶë¥¼":6365,"ìĭ¬ìľ¼ë¡ľ":6366,"ĠìĬ¤íĨłë¦¬ìĿĺ":6367,"Ġì¤ĳìĹĲìĦľ":6368,"Ġê±°ë¶Ģ":6369,"ĠìĺģêµŃ":6370,"ìľĦìĹĲ":6371,"ë´Ĳì£¼":6372,"Ġë¶Ħëĵ¤ìĿ´":6373,"ĠëıĦë§Ŀ":6374,"Ġìŀ¥ë©´ëıĦ":6375,"ĠëªħìŀĳìĿĦ":6376,"ë³µìĿĦ":6377,"Ġêµ¬ìĦ±ìĿ´":6378,"ĠëĲ©ëĭĪëĭ¤":6379,"ĠëĤ®ëĦ¤":6380,"íıīìĿ´":6381,"ëĬĶê±°ìķ¼":6382,"Ġë³´ì§Ģë§ĪëĿ¼":6383,"ĠìĨĲìĹĲ":6384,"ĠëĶĶíħĮìĿ¼":6385,"ê±´ê°ĢìļĶ":6386,"Ġê´ľì°®ìĿĢëį°":6387,"ĠìĿ½ìĸ´":6388,"Ġì§ĢëĤĺì¹ĺê²Į":6389,"łìłģìľ¼ë¡ľ":6390,"ëĬ¦ê²Į":6391,"ì§ĢëĦ¤":6392,"ëıĦë¥¼":6393,"ĠìĹł":6394,"ëĤĺëĭĪ":6395,"ë³´ìĺģ":6396,"ìĽĶìĿ´":6397,"íķĺê³łìĭ¶":6398,"ê·¸ëŁ¼":6399,"ê²łì£ł":6400,"ìķħíķľ":6401,"ĠìŀĲìĭĿ":6402,"Ġìľłì§Ģ":6403,"ì¢ĭëĦ¤ìļĶ":6404,"Ġê°ĲìķĪ":6405,"Ġìĺģìĸ´":6406,"Ġìĺģíĸ¥":6407,"!!!!!!":6408,"íĭ°ì¦Į":6409,"ĠìĿ´ìķ¼ê¸°ëĬĶ":6410,"Ġë³Ħë¡ľê³ł":6411,"Ġìĭ¬íķĺê²Į":6412,"ëĵ±ìŀ¥":6413,"ë°ĽëĬĶ":6414,"ìĤ¬ë¡ľ":6415,"ĠìĥĿíĻľ":6416,"Ġë°ĺìłĦìĿĢ":6417,"Ġë°ĽìĿĢ":6418,"Ġìĵ°ëĬĶ":6419,"ĠìĶ¹":6420,"ëĪĦëĤĺ":6421,"Ġëį°ìĿ´":6422,"ĠíĽĮë¥Ńíķĺëĭ¤":6423,"Ġë¬´ìĦľìĽĮ":6424,"ë¶Ģë¶ĦìĿ´":6425,"ĠíĻķìĭ¤":6426,"ìłľëª©ìĿ´":6427,"ĠêµĲíĽĪìĿĦ":6428,"Ġë³¼ìĪĺìŀĪëĬĶ":6429,"ìĭ«ìĸ´":6430,"ëĵľëĿ¼ë§Īë¥¼":6431,"ĠìĺģìĽĲíŀĪ":6432,"ĠDVD":6433,"ĹĦ":6434,"ê¸°ê¹Įì§Ģ":6435,"ìłĲìłĲ":6436,"ìĭľë¦¬":6437,"ë³´ìĿ´ëĬĶ":6438,"Ġ13":6439,"íķĺëĬĶìĺģíĻĶ":6440,"ĠëĮĢì¤ĳ":6441,"íĸĪìĹĪëĬĶëį°":6442,"ĠìķĪìĬµ":6443,"ê°ľê°Ģ":6444,"Ġëª»íķĺëĭ¤":6445,"Ġìķłëĵ¤ìĿĢ":6446,"ê¸´íķĺì§Ģë§Į":6447,"ĠìĽĥê³ł":6448,"Ġìŀ¬ë¯¸ìĹĨìĹĪëĭ¤":6449,"ë°ĶëŀĮ":6450,"íĹĪë¬´":6451,"ĠëķĮëł¤":6452,"ëĬĲê»´":6453,"ĠëªħìŀĳìŀħëĭĪëĭ¤":6454,"ì©ľ":6455,"Ġìŀ¼ëĤĺê²Į":6456,"ìĥĿê°ģìĿ´":6457,"ĠìŀĪëĭ¤ëĭĪ":6458,"Ġì§ľì¦ĿëĤĺìĦľ":6459,"íĪ¬ë¦¬":6460,"Ġì§ĳìĹĲ":6461,"Ġê²°ë§ĲìĿĦ":6462,"Ġëĭ´ìķĦ":6463,"ĠìĤ¶ìĹĲ":6464,"ìĺ¬íķ´":6465,"ìŀĸìķĦìļĶ":6466,"Ġë²ĶìĿ¸":6467,"Ġì£¼ìłľë¥¼":6468,"Ġìĥīëĭ¤ë¥¸":6469,"ãħħãħĤ":6470,"Ġíĺ¹ìĿĢ":6471,"íĢ´":6472,"ĠìĨĮì¤ĳíķľ":6473,"ĠëĤĺìģĺì§Ģ":6474,"íĮ©íĬ¸":6475,"ëī´":6476,"ìĿ´ìĸ´":6477,"ìĸ´íľ´":6478,"ĠëĤŃ":6479,"ë§ĮëıĦ":6480,"ëĿ¼ìĿĺ":6481,"Ġë³´ëįĺ":6482,"ìĭľì¹´":6483,"ĲëıĻ":6484,"Ġì°°":6485,"ĠëĮĢìĤ¬ëĵ¤":6486,"íĸĪìĿĦëķĮ":6487,"íĮł":6488,"ì¤ĳíĽĪ":6489,"Ġë¬´ë¦¬":6490,"ë¶ĦìĿĺ":6491,"ĠëĤ¨ëĦ¤ìļĶ":6492,"Ġìľłë°ľ":6493,"ĠìĤ¬ì§Ħ":6494,"íĶĦëĭĿ":6495,"Ġìĭľê°Ħê°ĢëĬĶì¤Ħ":6496,"íĽĦìĿĺ":6497,"Ġê°ķíķľ":6498,"ìĽĥê¹Ģ":6499,"Ġìĭ¬ìĺ¤":6500,"ëĵľëĿ¼ë§ĪëĬĶ":6501,"ĠëĤ®ì§Ģ":6502,"ĠìłģìłĪ":6503,"ĠìķĦìī½ì§Ģë§Į":6504,"ĠíĿ¥ë¯¸ë¡ľìļ´":6505,"ĠìĽĥê¸°ì§ĢëıĦ":6506,"Ġìĸ´ìĥīíķĺê³ł":6507,"ì»¤íĶĮ":6508,"ê¹ĬìĿĢ":6509,"Ġì¶ĶìĸµìĿ´":6510,"ê°ĳìŀĲê¸°":6511,"Ġì§ĳì¤ĳìĿ´":6512,"íķĺìŀĲëĬĶ":6513,"ë¿Į":6514,"50":6515,"Ġ007":6516,"ìĿ´ìĹ°ê±¸":6517,"íķĺëŁ¬":6518,"ê°ĢìĹĲ":6519,"ĠìĹ½":6520,"Ġë§¹":6521,"ìĸ´ëĤľ":6522,"ìķĦì¹ĺ":6523,"ĠìķĦìĹŃ":6524,"ĮĢìĿĺ":6525,"ìĭľê±¸":6526,"ìļ°ìļ¸":6527,"ìĪĺë¡ľ":6528,"ìĪĺìŀĳ":6529,"ìĥģìĪĺ":6530,"ãħłãħľ":6531,"Ġìĸ´ëĳ":6532,"Ġë´¤ëĦ¤":6533,"ë¶Ģë¥¼":6534,"ĠìĪĺìŀħ":6535,"ë¶Ħíķľ":6536,"ìĦ¸íı¬":6537,"ê°ĲìĤ¬":6538,"Ġê°Ļê³ł":6539,"Ġìµľê³łìĺĢëĭ¤":6540,"íİ¸ì§ĳ":6541,"ìĺĢëĦ¤":6542,"ìĺĢìľ¼ë©´":6543,"Ġë³¼ê±°ë¦¬":6544,"ìłĢëŁ°":6545,"ìĦłìĿĦ":6546,"Ġìĭ¶ìĸ´ìļĶ":6547,"íĺĦìŀ¬":6548,"íıīìłĲìĿĢ":6549,"ê°ĻìĿĢìĺģíĻĶ":6550,"ĠìķĦëĭĪì§Ģ":6551,"ì¦ĪìĿĺ":6552,"Ġë§ĮëĵłìĺģíĻĶ":6553,"ĠìĿ´ìĥģíķĺê²Į":6554,"ë¹łì§Ħ":6555,"ìŁģìĿ´":6556,"Ġëĭ´ê²¨":6557,"Ġë²łëĵľ":6558,"Ġê°ĳëĭĪëĭ¤":6559,"Ġìĸĳìĭ¬":6560,"ëĬĲëĤĮìĿ´":6561,"íĸĩëĭ¤":6562,"Ġìĸ´ëĬĲìłķëıĦ":6563,"Ġì²«ìĤ¬ëŀĳ":6564,"Ġì°©ê°ģ":6565,"Ġìĭľì²Ńë¥łìĿ´":6566,"Ġë¿Į":6567,"-^":6568,"°Ķ":6569,"ìĮ":6570,"ãħĵ":6571,"ìĦ¬":6572,"ëıĦìķĦëĭĪê³ł":6573,"ĠìĺģíĻĶìĻĢ":6574,"ĠìķĦê¸°":6575,"ê¹ľ":6576,"ë§Īì¹ĺ":6577,"Ġíķĺëĭ¤ê°Ģ":6578,"ìŀĪìĿĦ":6579,"ì°¡":6580,"ìĦ±ê¸°":6581,"Ġìŀ¬ë°Įëĭ¤ëĬĶ":6582,"Ġê°ĲëıĻìĿĢ":6583,"Ġê°ĲëıĻìłģìĿ´ëĭ¤":6584,"ë°ķíķľ":6585,"ëĤ¨ì£¼":6586,"íĹĲë¦¬":6587,"ĠìĺĪëĬ¥":6588,"ëĬĲëģ¼":6589,"ĠëĳĲë²Īì§¸":6590,"ĠíĻĶëģĪ":6591,"ĠìłĲìĪĺê°Ģ":6592,"ĠëĤ®ìķĦ":6593,"Ġë§¤ëł¥ìłģìĿ´":6594,"ìĬ¤ëŁ½ì§Ģ":6595,"ìŀ¬ë¯¸ìŀĪìĿĮ":6596,"ĠìķĦëĭĪëĿ¼ê³ł":6597,"Ġìŀ¬ëĬ¥":6598,"Ġë³´ì§Ģë§Ĳ":6599,"ì´ĪìĹĲ":6600,"ĠìĨĲìĥī":6601,"ìĹ¬ìŀĲê°Ģ":6602,"ìĬ¬íĶĦ":6603,"Ġìĸ´ìĦ¤íĶĦê³ł":6604,"ëĿ¼ìĿ´ìĸ¸":6605,"Ġê´Ģê°ĿìĿĦ":6606,"Ġê¶ģê¸Īíķĺëĭ¤":6607,"ë°ĺìłĦìĿ´":6608,"ĠìĹīìĦ±íķĺê³ł":6609,"Ġsf":6610,"Ġì½ľ":6611,"Ġìĭ¤ìłľë¡ľ":6612,"ĠíĹ¤ìĸ´":6613,"ìĻłì§Ģ":6614,"ĠìĹŃëĮĢê¸ī":6615,"?...":6616,"es":6617,"±ìłķ":6618,"ĠE":6619,"ì§ĢíĺĦ":6620,"ìľĪ":6621,"ìĬ¤ìĹĲ":6622,"Ġìĺ¥":6623,"ĠìĺĽ":6624,"ìĹ¬ì§Ħ":6625,"ìĿ¼ìĿĦ":6626,"ìĿ¼ëĵ¯":6627,"íķ¨ëıĦ":6628,"ĠìķĬìķĦìĦľ":6629,"Ġë¬´íķľ":6630,"ĠëĤ´ìļ©ê³¼":6631,"ì¡°ìĹ°":6632,"ĠìľĦëĮĢ":6633,"ë°©ê¸Ī":6634,"ĠìĹĲíľ´":6635,"Ġë³´ê¸°ìĹĲ":6636,"ĠëĨĴìķĦìĦľ":6637,"ì£¼ìĿ¸ê³µìĿĺ":6638,"ìĸ¼ë§ĪëĤĺ":6639,"Ġëªĩëªĩ":6640,"ìĸ´ìķ¼ì§Ģ":6641,"Ġì¦Ĳê²¨":6642,"ĠêµĲê³¼ìĦľ":6643,"Ġëª©ìĪ¨":6644,"Ġíĺķëĭĺ":6645,"ĠìĽĥê¸°ëĭ¤":6646,"Ġë¬´ìĦŃì§ĢëıĦ":6647,"ĠíĻķìĿ¸":6648,"Ġì°¾ìķĦë³¼":6649,"Ġì§ĳì¤ĳíķ´ìĦľ":6650,"Ġë¸Ķë¡Ŀë²ĦìĬ¤íĦ°":6651,"ëĨĴìĿĢ":6652,"ĠìĺģíĻĺëį°":6653,"Ġëĭ¤ìĸĳíķľ":6654,"²Ī":6655,"íĩ´":6656,"ëĭ¬ë":6657,"ìłĬ":6658,"ëıĮìĿ´":6659,"íķĺëįĶëĿ¼":6660,"ĠëĤ¬":6661,"Ġë³´ìķĺëĬĶëį°":6662,"ë©´ìĹĲìĦľ":6663,"ë°į":6664,"ìłĦìĦ¤":6665,"ĠìŀĪëĭ¤ê³ł":6666,"Ġì§Ģê¸Īë³´":6667,"Ġíķľëĭ¤ëĬĶ":6668,"ì¹ĺê³¤":6669,"Ġì£¼ë§Ĳ":6670,"ê°ĻìķĦ":6671,"Ġë§Ĳìķĺ":6672,"Ġë³¼ëķĮ":6673,"Ġì¡°ìļ©":6674,"ëĨį":6675,"íķĺì§Ģë§ĪëĿ¼":6676,"Ġê²°ì½Ķ":6677,"ĠëĤĺìĺ¤ëĦ¤":6678,"ĠìķĦê¹Ŀê³ł":6679,"ì¼°":6680,"Ġì§ľì§ĳ":6681,"ĠëĳĲëł¤":6682,"ĠìĿ´ìĥģíķĺê³ł":6683,"ĠëĤ®ëĭ¤":6684,"ĠìĦłëıĻ":6685,"ĠìŀĶíĺ¹":6686,"Ġê°ĢìĬ´ìĿĦ":6687,"ì¢ĭìĿĢëį°":6688,"ìŀĩëĬĶ":6689,"Ġìĭ¸ìļ°ëĬĶ":6690,"ìĹ¬ëŁ¬":6691,"ëĤ¸ëĭ¤":6692,"Ġìĸ´ìĦ¤íĶĦ":6693,"ëĺĲíķľ":6694,"Ġëª°ìŀħëıĦê°Ģ":6695,"ĠìķĪëĲł":6696,"ìķŀìľ¼ë¡ľ":6697,"ë¹¼ê³ł":6698,"ĠìĬ¤íĬ¸ëłĪìĬ¤":6699,"ĠìĿ¼ê¹¨ìĽĮ":6700,"ìĿ´ìłł":6701,"ë§Īë¬´":6702,"ê³łìĥĿ":6703,"ĠíĮĢ":6704,"ë¡¤":6705,"ìĺ¬ëĿ¼":6706,"ë§Īê°Ģ":6707,"ìĹĪêµ¬ëĤĺ":6708,"Ġëĭ¤ìĦ¯":6709,"ìĪĺíĺĦ":6710,"ìŀ¥ìĿĺ":6711,"ëĵľë¦¬":6712,"Ġ11":6713,"Ġìŀ¬ë°Įìĸ´ìĦľ":6714,"ê°ĻìķĦìļĶ":6715,"ìŀ¬ë¯¸ìĹĨê³ł":6716,"ëıĻíĻĶ":6717,"ĠëŃĲíķĺëĤĺ":6718,"ìĨįìľ¼ë¡ľ":6719,"ë§Īë¥¼":6720,"ìĹ°ê¸°ë¥¼":6721,"Ġëª°ëŀĲëĭ¤":6722,"ĠìĿ´íķ´ë¥¼":6723,"ĠëĺĲëĭ¤ë¥¸":6724,"Ġê´Ģëł¨":6725,"ĠìľĦíĹĺ":6726,"Ġì§ľì¦Ŀë§Į":6727,"ì£½ëĬĶ":6728,"Ġìĸµì§ĢìĬ¤ëŁ¬ìļ´":6729,"ĠëĤĺìĻĶëĭ¤":6730,"ìŀ¬ë°ĭê²Į":6731,"ìŀ¬ë°ĭìĸ´ìļĶ":6732,"Ġìĸ´ì©ľ":6733,"ĠíĮĲëĭ¨":6734,"ĠëıĮìķĦê°Ģ":6735,"ëªĩë²ĪìĿĦ":6736,"Ġë§ĲëıĦìķĪëĲĺëĬĶ":6737,"ëİħ":6738,"Ġë°Ģëł¤":6739,"ë©ĶìĿ´ëĵľ":6740,"ĠìĹ°ìĺĪìĿ¸":6741,"Ġìĸ´ìļ°ëŁ¬":6742,"est":6743,"íķĺê±°ëĤĺ":6744,"íķľìĭ¬":6745,"íķľê°ľëıĦ":6746,"ĠìĺģíĻĶë§Į":6747,"ĠìĹ¬ë¦Ħ":6748,"ìĿ¸ê±´":6749,"ĠìķĦëĤĺ":6750,"ĠìķĦëĤ´":6751,"ìĭľê°Ģ":6752,"ĠìłķíĻķ":6753,"ê·¸ëĭ¥":6754,"ĠìĭľëģĦ":6755,"ìĿ¼ìĿĺ":6756,"ìĤ¬ìĻĢ":6757,"ìĭłê³ł":6758,"ĠìŀĺíķĺëĬĶ":6759,"íĬľ":6760,"Ġë¶Ģë¥´":6761,"Ġì¡°ìĦł":6762,"ìķłëĵ¤ìĿĢ":6763,"ĠëªħíĻĶ":6764,"Ġìŀ¬ë¯¸ìĹĨìĸ´ìĦľ":6765,"ê²½ìĿ´":6766,"íĮĲìĿ´":6767,"ĠíĸĪìĿĮ":6768,"ìĤ´ìķĦ":6769,"Ġë³Ħë¡ľìŀĦ":6770,"ì°¸ê³ł":6771,"Ġëª¨ëĵłê±¸":6772,"ì¢ħêµĲ":6773,"ì²ĺìĿĮìľ¼ë¡ľ":6774,"íĮ¨ìĬ¤":6775,"Ġìŀ¬ë°ĭëĭ¤":6776,"Ġëħ¸ëŀĺê°Ģ":6777,"Ġìŀĳê°Ģëĭĺ":6778,"Ġì©Ŀ":6779,"Ġë¹µë¹µ":6780,"ĠìĺĪìģĺëĭ¤":6781,"íŀĺëĵ¤":6782,"Ġíķľìĭ¬íķľ":6783,"ª¨ë¡ľ":6784,"ĠíĽĪíĽĪíķľ":6785,"Ġëıħë¦½ìĺģíĻĶ":6786,"ì¨Į":6787,"Ġê·¸ë¦½ëĭ¤":6788,"ĠìĹĲíĶ¼ìĨĮëĵľ":6789,"Ġe":6790,"ìĿ´ê²ĥ":6791,"ë©¸":6792,"Ġê·¸ëŀ":6793,"ìľ¼ëł¤ê³ł":6794,"ìŀĲê¾¸":6795,"ĠìĹĨê²Į":6796,"ĠìĹĨìĹĪìĿĮ":6797,"ĠëĮĢëĨĵê³ł":6798,"êµ¬ê°Ģ":6799,"Ġë¬´ë£Į":6800,"ĠëĬĶ":6801,"ĠíĺĲ":6802,"Ġìĺ¤ë¹ł":6803,"ĠìĤ¬ëŀĮëıĦ":6804,"ĠëĲĺëĦ¤ìļĶ":6805,"Ġìĭ¶ì§Ģ":6806,"ì¤ĦìĿĢ":6807,"Ġê²°ìłķ":6808,"ë¶ĢíĦ°ê°Ģ":6809,"ìĭľê°ĦìĿĦ":6810,"ĠìĹ°ì¶ľìĿĢ":6811,"Ġì§ľìŀĦìĥĪ":6812,"Ġìŀ¥ë©´ìĿĦ":6813,"Ġê´ľì°®ìķĺëĭ¤":6814,"ìĻĶëĬĶëį°":6815,"Ġë§ĪìĿĮìľ¼ë¡ľ":6816,"ëĤ´ê°Ģë³¸":6817,"Ġì§ľì¦ĿëĤ¨":6818,"íĪ°":6819,"Ġë´¤ëĭ¤ë©´":6820,"Ġëĸ¨ìĸ´ì§Ĳ":6821,"ìµľê³łìĿĺìĺģíĻĶ":6822,"ĠíĥĢê³ł":6823,"ìĿĮìķħìĿ´":6824,"íģ¬ëł":6825,"ĠëķľìĹĲ":6826,"Ġëĭ¤ë¥´ê²Į":6827,"Ġë¹µíĦ°":6828,"Ġë§ĪìĿ´íģ´":6829,"Ġëģ¼ìĽĮ":6830,"ìį¼":6831,"ĠP":6832,"ëĭ·":6833,"íķĢ":6834,"ê°ĪëķĮ":6835,"ìĹĲìĿ´":6836,"ĠìĺģíĻĶìĿ¸ì§Ģ":6837,"ĠìĿ´ìłķ":6838,"ìĸ´ìļ©":6839,"ëĿ¼ëħ¸":6840,"ëł´":6841,"ĠìķĦëĥĲ":6842,"Ġìłķìŀĳ":6843,"ë¶ĢìĿĺ":6844,"ĠìĥĿê°ģëıĦ":6845,"Ġêµ´":6846,"ëĵ¤ìĿ´ëĤĺ":6847,"ĠìŀĲëŀĳ":6848,"ĠìķĮê²łëĭ¤":6849,"ìĺģìĽħ":6850,"Ġë°°ìļ°ëıĦ":6851,"ì§ģíķľ":6852,"Ġê°ĲíŀĪ":6853,"ìŀ¬ë°ĮëĬĶ":6854,"Ġìŀ¬ë¯¸ìĹĨìĸ´ìļĶ":6855,"ë¯¼ìĿ´":6856,"ê·¹ìĿĦ":6857,"ë³¼ëķĮë§Īëĭ¤":6858,"ìĽĥê²¨":6859,"Ġë§ŀì¶°":6860,"íĹĪíĹĪ":6861,"Ġãħĭãħĭãħĭãħĭãħĭãħĭ":6862,"ĠìķĦê¹Įìļ´ìĺģíĻĶ":6863,"Ġì¶ľìĹ°íķľ":6864,"ĠìĿ½ê³ł":6865,"ãħĭãħĭãħĭãħĭãħĭãħĭãħĭãħĭãħĭãħĭãħĭãħĭãħĭãħĭãħĭãħĭãħĭãħĭãħĭãħĭãħĭãħĭãħĭãħĭãħĭãħĭãħĭãħĭãħĭãħĭãħĭãħĭ":6866,"ëĪĪë¬¼ìĿ´":6867,"ìĭ«ëĭ¤":6868,"ê¸°ìĸµìĹĲ":6869,"ìº¬":6870,"ê·¸ëŁ¬ëĤĺ":6871,"ĠìĿ´ëĶ°ìľĦ":6872,"ĠíĶĮë¡¯":6873,"ë¡ľë§¨ìĬ¤":6874,"ĠìķĦë¥ĺìŀĳ":6875,"ì·":6876,"ëĭĪëĿ¼":6877,"ìĿ´ìĹ¬":6878,"ë§Įíķĺëĭ¤":6879,"ë¦¬ìĻĢ":6880,"Ġìłł":6881,"ë©ľ":6882,"íķ´ìĦł":6883,"Ġë³´íĨµ":6884,"Ġëª¬":6885,"ìľ¼ìĭł":6886,"ĠëĦĮ":6887,"ì¹ĺì§Ģ":6888,"ë¶Ģëª¨":6889,"Ġë³¸ê±´ëį°":6890,"ĠëĤ¨ê¸°":6891,"Ġê²ĥìĹĲ":6892,"ìĹĪëĭ¤ê³ł":6893,"Ġë¹ħ":6894,"ìŀ¬ë¯¸ìŀĪëĬĶ":6895,"ĠìŀĳìľĦ":6896,"Ġë¶Ģíĥģ":6897,"ĠìķĪë´":6898,"ĠíĹĮ":6899,"Ġê³łë§Ļ":6900,"Ġë§¤ìĿ¼":6901,"ìĭĿìĿĢ":6902,"Ġìķ¡ìħĺìĿĦ":6903,"Ġì¶Ķê²©":6904,"ì°¨ë³Ħ":6905,"Ġê´ľì°®ìĿĮ":6906,"íĺķìłľ":6907,"ìŀĺë´¤ìĬµëĭĪëĭ¤":6908,"ìĹĩìĿĮ":6909,"ìķĪëĲľ":6910,"ìĥĿê°ģìĿĦ":6911,"ĠìķĦìĿ´ê°Ģ":6912,"Ġë°ĽëĬĶ":6913,"Ġë³µìŀ¡":6914,"ĠìĺģíĻĶëĿ¼ëĭĪ":6915,"ìĭľëĮĢë¥¼":6916,"ë³´ì§Ģë§ĪìĦ¸ìļĶ":6917,"íķĺì§ĢìķĬê³ł":6918,"ëĶ°ëľ»íķľ":6919,"ĠìľłìĿ¼íķľ":6920,"Ġê²¬ìŀĲëĭ¨":6921,"ìĩĦ":6922,"Ġn":6923,"ħĢ":6924,"ëį¸":6925,"ë¡ľì§Ģ":6926,"...^^":6927,"ìĿ¸ì§ĢëıĦ":6928,"Ġëĭ¬ëł¤":6929,"ìĽ¬":6930,"ë§ĪìŀĲ":6931,"ĠìĹĨëĤĺìļĶ":6932,"ì£¼ê¸°":6933,"ìĥģìĿĢ":6934,"ĠìķĪê°Ħëĭ¤":6935,"ê¹Įì§ĢëıĦ":6936,"Ġë¯¸ìĬ¤íĦ°":6937,"ĠìĤ¬ëŀĮëĵ¤ìĹĲê²Į":6938,"ì¢ĭê²Į":6939,"Ġê³µê°Ħ":6940,"ĠëĤ´ìļ©ìĿ¸ì§Ģ":6941,"ì¤Ħê±°ë¦¬":6942,"ĠìĤ´ë©´ìĦľ":6943,"Ġìŀ¼ìŀĪëĭ¤":6944,"ì½§":6945,"ĠìĦľë¶Ģ":6946,"ìŀ¡ìĿĦ":6947,"ëĬĶê±°ì§Ģ":6948,"Ġê·¹ìŀ¥ê°ĢìĦľ":6949,"ìķ¡ìħĺìĿĢ":6950,"Ġëĭ´ë°°":6951,"ĠìķĦìī¬ìĽĢìĿ´":6952,"ĠìĺģíĻĶìĺĢìĿĮ":6953,"ĠëĤļìĭľ":6954,"Ġê¿Īê¾¸":6955,"ëª¨ë¥´ê³ł":6956,"Ġë¹ĦëĶĶìĺ¤ë¡ľ":6957,"ĠìķķëıĦ":6958,"ì¤¬ìľ¼ë©´":6959,"ìĻłë§Įíķĺë©´":6960,"Ġì¤ĺìķ¼":6961,"Ġëĭ¤ìļ´ë°ĽìķĦ":6962,"ĠíķĺëĤĺíķĺëĤĺê°Ģ":6963,"Ġë¥ĺìĬ¹":6964,"ĠìĬ¬íİĲ":6965,"ht":6966,"¡íĮ¨":6967,"ĠL":6968,"ëĭ¼":6969,"ìĸ´ìĿĺ":6970,"ë¡ľìį¨":6971,"ëĿ¼ëĿ¼":6972,"ë¦¬ëĤĺ":6973,"Ġë³´ëĤ´":6974,"ìłķê³¼":6975,"ìłĦìĿĦ":6976,"ê·¸ëķĮ":6977,"ìĬµëĭĪê¹Į":6978,"ëŀĺëıĦ":6979,"Ġìŀ¬ë°ĮìĿĦ":6980,"Ġì¤įëĭĪëĭ¤":6981,"ë¶ĦìĿĦ":6982,"ìĦ¸ìĹ¬":6983,"ê°Ĳìłķ":6984,"Ġë³¸ë°©ìĤ¬ìĪĺ":6985,"ĠëģĿëĤ¬":6986,"ë§Ŀìŀĳ":6987,"Ġê±°ë¶ģ":6988,"ì§ĪìĿ´":6989,"Ġìĭľê°ĦìĹĲ":6990,"Ġëĸ¼":6991,"Ġê·¹ë³µ":6992,"Ġìļ¸ë¦¬ëĬĶ":6993,"Ġëĭ¨íİ¸":6994,"Ġì§ľì¦ĿëĤĺê³ł":6995,"íĿ¬ê°Ģ":6996,"ìķ¡ìħĺìĿ´":6997,"ĠëłĪìķĮ":6998,"Ġê·ĢìĹ¬ìĽĮ":6999,"Ġìľłì¾Įíķĺê³ł":7000,"Ġë¶ĪìĮįíķĺëĭ¤":7001,"Ġë§ĽìĿ´":7002,"Ġof":7003,"Ġìĺ¬íķ´":7004,"Ġë§Ĳíķĺê³łìŀĲ":7005,"ĠëĨĢëŀįëĭ¤":7006,"ĠìĿ´ë»ĲìĦľ":7007,"Ġ>":7008,"ìĿ´ìļĶ":7009,"ëĤĢ":7010,"ë¦ĩ":7011,"ìĥĺ":7012,"ë³´ëĤ´":7013,"ìļ°ìĿĺ":7014,"ìłĦìĿ´":7015,"Ġìłķì²´":7016,"ĠìĬ¤íİĺ":7017,"ĠìĽ°":7018,"ĠìŀĲìĦ¸":7019,"ĠëĤ¨íİ¸":7020,"Ġìĺ¤ë¸Į":7021,"ë²Ħì§Ģê°Ģ":7022,"Ġë¶Ģìĭ¤":7023,"Ġ21":7024,"Ġê°Ĳê°ģ":7025,"Ġë°ĺëĵľìĭľ":7026,"ë°Ķë³´":7027,"ĠìŀĳíĴĪìŀħëĭĪëĭ¤":7028,"ĠëķĮë§Īëĭ¤":7029,"ì²ľìŀ¬":7030,"íĸĪëĭ¤ë©´":7031,"ìĭľê°ĦëĤŃë¹Ħ":7032,"Ġë°°ìĭł":7033,"ì§ĳìĹĲ":7034,"ê°ĲëıĻìłģìĿ´ê³ł":7035,"ĠìłķëıĦë©´":7036,"ì¡ĮìĿĮ":7037,"Ġë°Ľê³ł":7038,"Ġìĺģìĥģê³¼":7039,"Ġë¨¸ë¦¬ê°Ģ":7040,"ĠìĨĮìŀ¬ëĬĶ":7041,"Ġëª¨ë¥´ê²łëĦ¤ìļĶ":7042,"ì¿¡":7043,"ìľ¤ë°ľ":7044,"ĠíĿĲë¥´ëĬĶ":7045,"ĠëģĮê³ł":7046,"ĠìĿ´ë¦ĦìĿĦ":7047,"Ġì±ħìŀĦ":7048,"ĠíĥĪì¶ľ":7049,"íķŃìĥģ":7050,"ìĿ´ìĹĲ":7051,"íķĺê·ł":7052,"ëĤ©":7053,"ëĵŃ":7054,"ìķĦë§Ī":7055,"ìĹĨìĿĦ":7056,"ĠëĤĺëĦ¤ìļĶ":7057,"Ġëĭ¤ìĿ´":7058,"ìŀ¥ìĭ¤":7059,"ĠëĵŃëĭĪëĭ¤":7060,"Ġì§Ģê²¹":7061,"íķłë§Įíķľ":7062,"Ġëį¤":7063,"ìĤ¬ìĹĲ":7064,"Ġìŀĺë´¤ìĸ´ìļĶ":7065,"íĬĢ":7066,"ĠëĬ¦":7067,"ĠìĿ¸íĺķ":7068,"Ġê°ľëħĲ":7069,"ì¤Ģíĺ¸":7070,"ë³´ëĭ¤ëıĦ":7071,"ëįĶëįĶ":7072,"Ġìļ°ë¦¬ëĬĶ":7073,"ĠìĽĥìľ¼ë©´ìĦľ":7074,"Ġìĭ¤ëł¥":7075,"ĠëıĻìĦ±ìķł":7076,"ëª»íķ´":7077,"Ġë§īíĮĲìĹĲ":7078,"ĠìĦ¤ìłķìĿ´":7079,"Ġë§Ŀíķľ":7080,"Ġë§ŀì§Ģ":7081,"ĠìĦłë¬¼":7082,"Ġì§ĳìĸ´":7083,"ê¸°ëıĦíķĺê³ł":7084,"ĠìĹ´ìĹ°":7085,"ê¸°ëĮĢíķĺê³ł":7086,"Ġëĭ´ìĿĢ":7087,"Ġì´Īëĵ±íķĻìĥĿ":7088,"ê´ĳê³ł":7089,"ĠëĤļìĺĢëĭ¤":7090,"Ġìĺ¤ëŀĺëĲľ":7091,"Ġëĭ¤ë¥´ëĭ¤":7092,"Ġëĭ¹ìĭłìĿĢ":7093,"Ġì§§ìĿĢ":7094,"ĠìŀĬíĺĢì§Ģ":7095,"Ġê°ĢëĵĿíķľ":7096,"ĠëģĶì°į":7097,"ĠëĿĦ":7098,"ĠF":7099,"ĠN":7100,"..!":7101,"¬ëĦ¤":7102,"ĠìĿ´ë¯¼":7103,"ìķĦì¹¨":7104,"Ġê·¸ëĵ¤":7105,"ìłĲë¶ĢíĦ°":7106,"Ġë°ĸ":7107,"ĠìĹĨìľ¼ë©´":7108,"Ġì¢ĭëĭ¤ê³ł":7109,"ì£¼ë©´":7110,"ìŀĪì§Ģë§Į":7111,"ĠëĦĪë¬´ëıĦ":7112,"ĠëĮĢìĭł":7113,"Ġìŀ¬ë°Įëįĺëį°":7114,"ĠìķĪëĤĺ":7115,"Ġìµľê³łë´ī":7116,"ĠëģĪ":7117,"Ġë³¸ëĵ¯":7118,"Ġê°ĲëıĻë°Ľ":7119,"Ġê¹į":7120,"ĠíĿ¬ë":7121,"Ġíĸĩ":7122,"Ġì¤ĳëıħ":7123,"ĠìķłêµŃ":7124,"ë¬¼ë¡ł":7125,"ìŀ¬ë°ĮìĹĪìĸ´ìļĶ":7126,"Ġìŀ¬ë¯¸ìĹĨëĭ¤ê³ł":7127,"ãĦ²":7128,"ëĤ¨ê¸°":7129,"ìĦ¤ë§Ī":7130,"ì¦Īê°Ģ":7131,"ĠìķĦê¹ĿëĦ¤ìļĶ":7132,"Ġë§Īì§Ģë§īê¹Įì§Ģ":7133,"ĠìĦ¤ë§Ī":7134,"ĠìłĦê°ľìĻĢ":7135,"Ġë°ĺìłĦìĿĦ":7136,"ê¶ĮìĿ´":7137,"Ġì¦Ĳê¸¸":7138,"ìĵ°ëĬĶ":7139,"ìŀ¬ë°ĭìĿĮ":7140,"Ġìŀłìĭľ":7141,"ê²¬ìŀĲëĭ¨":7142,"Ġì¼Ģë¦ŃíĦ°":7143,"Ġìĸ¼êµ´ìĿ´":7144,"Ġê½¤ëĤĺ":7145,"ìķĦëĭĮê°Ģ":7146,"ìĪĻíķľ":7147,"Ġì½©":7148,"Ġë¬»ìĸ´":7149,"âĢ¦":7150,"ĠëĨĢëĿ¼ìļ´":7151,"ĠíĶ¼íķ´ìŀĲ":7152,"ĠìĿ¼ë¶ĢëŁ¬":7153,"ìĿ´ìłķëıĦë©´":7154,"Ġëĭ¤íģĲë©ĺíĦ°ë¦¬":7155,"Ġyou":7156,"ĳëĮĢ":7157,"ĠëĹĦ":7158,"ìĿ´ì£ł":7159,"ìŀĪëĥĲ":7160,"ì§ĢìĹĲ":7161,"ëĤ©ëĭĪëĭ¤":7162,"¬ëĦ¤ìļĶ":7163,"ëıĦë¡ľ":7164,"ëłĽ":7165,"ĠìĹĨëĭ¤ê³ł":7166,"ĠëĤ´ê²Į":7167,"ķĮë¬¸ìĹĲ":7168,"ë¯¸ì¹ĺ":7169,"íŀĪê³ł":7170,"íĸĪìĿĦê¹Į":7171,"ĠìĪĺë§İìĿĢ":7172,"ë£¨íĨł":7173,"Ġë¬´ê²Į":7174,"ë¶Ħëĵ¤ìĿĢ":7175,"ê°ľìĿ¸":7176,"ĠìĿ¸ëĶĶ":7177,"Ġìµľê³łë¡ľ":7178,"Ġêµ¬ë¦¬":7179,"ìłĢê¸°":7180,"ìķĪëı¼":7181,"Ġìķłë§¤":7182,"ĠìłĢê¸ī":7183,"ë°ĶëĿ¼":7184,"ĠìĹŃìĤ¬ë¥¼":7185,"Ġë°Ķíĥķ":7186,"ĠëıĻìĸĳ":7187,"ë³¼ìĪĺë¡Ŀ":7188,"ë³´ëĬĶê²Į":7189,"Ġê´ľì°®ê³ł":7190,"Ġì¤Ħê±°":7191,"Ġë§¤ëł¥ìĹĲ":7192,"ĠìłķëıĦê°Ģ":7193,"ĠìĥĿê¸´":7194,"ĠìķĦë¬´ëŁ°":7195,"ĠíĮĮìĽĮ":7196,"Ġê³§":7197,"ìµľìķħìĿ´ëĭ¤":7198,"ìĬ¬íĶĦëĭ¤":7199,"ĠìķĮë°Ķëĵ¤":7200,"ĠìĤ¬ìĭ¤ìĿĦ":7201,"ì±ħìĿĦ":7202,"ĠìķĬìķĺëįĺ":7203,"ë¡Ńê³ł":7204,"ê±°ê°ĻìĿĮ":7205,"ìĿ´íķ´ê°Ģ":7206,"Ġë¹ĽìĿĦ":7207,"ĠìłĦìĦ¤ìĿĺ":7208,"ìĬĪíį¼":7209,"ëĳ¥ìĿ´":7210,"Ġìĸ´ëł¸ìĿĦëķĮ":7211,"¬ë°ķ":7212,"ĠíĬ¹ìĪĺíļ¨ê³¼":7213,"ĠëĮĦ":7214,"ow":7215,"¨¹":7216,"ĠX":7217,"ľ¨":7218,"ìĿ´ëĵł":7219,"ê°Ģë³įê²Į":7220,"ëıĦìĿĺ":7221,"ê²ĮíķĺëĬĶ":7222,"ëĭĪì½ľ":7223,"ëį°ì²´":7224,"ìĺµ":7225,"ìĬ¤íĨ¤":7226,"ê¹ĮìļĶ":7227,"Ġíķĺìĭľ":7228,"ìļ°ìĬ¤":7229,"Ġìĺ¹":7230,"íĥĲ":7231,"ĠíķľìĪ¨":7232,"íķ¨ê»ĺ":7233,"ë¶Ħë§ĮìĹĲ":7234,"ĠìķĪëĵ¤":7235,"ê°ĻìķĦìĦľ":7236,"ĠìĽ¨":7237,"ìŀĦìĹĲëıĦ":7238,"ĠìĥĿê°ģëĤľëĭ¤":7239,"ìľłë¦¬":7240,"ìŀ¬ë¯¸ìŀĩ":7241,"ĠëŃĲëĭĪ":7242,"Ġìķłê¸°":7243,"Ġê³łëĩĮ":7244,"ìľĦìĽĲ":7245,"ĠíĥĿ":7246,"ì´¬ìĺģ":7247,"Ġë©ĭì§Ģê³ł":7248,"Ġê´ľì°®ëĭ¤":7249,"ìĤ¬ëŀĮìĿĺ":7250,"ë¨¹ìĿĢ":7251,"ê·¼ëŀĺ":7252,"ĠíĺĦìĭ¤ìĿ´":7253,"Ġì§ľì¦ĿìĿ´":7254,"ìĬ¤ëŁ¬ìĽĮ":7255,"ë¶ĪíĹĪ":7256,"ë³ĳíĹĮ":7257,"ĠãħĤ":7258,"ìĹ¬ë²Ħ":7259,"Ġêµ¿êµ¿":7260,"ìĿĮìķħëıĦ":7261,"íĥĪì¶ľ":7262,"ìŀ¬ë¯¸ìĹĨìĸ´ìļĶ":7263,"Ġê¶ģê¸Īíķ´ìĦľ":7264,"ìĭľëĮĢìĹĲ":7265,"Ġìŀ¥ë¥´ê°Ģ":7266,"Ġbê¸ī":7267,"¶ĢíĦ°":7268,"ê¸°ìĸµìĿ´":7269,"Ġdvd":7270,"ì§Ħë¶Ģíķľ":7271,"ìĥĪë¡ľìļ´":7272,"al":7273,"ic":7274,"Ġk":7275,"ĠìŃī":7276,"ëĬĶê±¸":7277,"ìłĪë¡ľ":7278,"ĠìŀĲëıĻ":7279,"ĠìĺģíĻĶë³´ë©´ìĦľ":7280,"ëĤĺê°Ħ":7281,"ë§Įì¡±":7282,"ë¦¬ìĹĦ":7283,"ìķĦëħ¸":7284,"ìĺģíĻĶìĹĲìĦľ":7285,"ìĹĨì§Ģ":7286,"ĠëĤĺìĺ¬ë":7287,"ì§ĦìķĬ":7288,"Ġìŀ¬ë¯¸ë¡ľ":7289,"ĠëĤ´ìĥĿ":7290,"íķłë¿Ĳ":7291,"ìĹ°ìķł":7292,"Ġê°Ģë³į":7293,"ë¯¸ëĬĶ":7294,"Ġ199":7295,"ëĵłê°Ģ":7296,"Ġì²©":7297,"Ġë§ĲìŀĲ":7298,"ë¬´ìĭľ":7299,"ĠìĤ¬ìļ©":7300,"Ġì¡°íĻĶ":7301,"ĠíĮĿ":7302,"íķĺì§Ģë§Ī":7303,"ëĭµëĭĪëĭ¤":7304,"Ġë©ĭìŀĪëĬĶ":7305,"íĺ¸ê°Ĳ":7306,"ìĽłê³ł":7307,"ì¹´íĶĦ":7308,"ì¹´ë©ĶëĿ¼":7309,"Ġë§Ŀì¹ľ":7310,"ì°¸ìĭł":7311,"ê»ĺìļĶ":7312,"Ġì°įê³ł":7313,"ĠëĨĢëŀĲ":7314,"Ġë´Ĳìķ¼ì§Ģ":7315,"Ġìĭ¸ìĽĢ":7316,"©´ìĦľ":7317,"Ġê°ģìĥī":7318,"ĠìĪĺìŀĳìĿ´ëĭ¤":7319,"ĠëĶ°ëľ»íķĺê³ł":7320,"ĠCê¸ī":7321,"ĠìŀĶìŀĶíķĺê³ł":7322,"íķĻêµĲìĹĲìĦľ":7323,"ìŀĶìŀĶíķĺê³ł":7324,";;;;;;;;":7325,"Ġë¦¬ìĸ¼ë¦¬íĭ°":7326,"ĠìĨĮìĦ¤ìĿĦ":7327,"ĠìĭĿìĥģíķľ":7328,"ĠíĿ¬ë§ĿìĿĦ":7329,"íĽĮë¥Ńíķľ":7330,"199":7331,"60":7332,"½ķ":7333,"ëĭ¤ë¥´":7334,"íķĺìĿ´":7335,"ĠìĺģíĻĶëĤĺ":7336,"ĠìĺģíĻĶìķ¼":7337,"ìĿĢëį°":7338,"ëĵ¤ë¡ľ":7339,"ë¥ľ":7340,"ë³´ê¸´":7341,"ìĬ¤ë§¨":7342,"ëŀŃ":7343,"ìĹĨëĤĺ":7344,"ì£¼ê¸°ëıĦ":7345,"ìĥģìłģìĿ¸":7346,"Ġì§Ģê²¨":7347,"Ġíķľë°©":7348,"íķłì§Ģ":7349,"ĠëĮĢíĨµëł¹":7350,"ë¶ĢëĬĶ":7351,"êµ¬ìĿĺ":7352,"ë¶ĦëıĻìķĪ":7353,"Ġì£¼ì§Ģ":7354,"ê°Ĳê³¼":7355,"íĬ¸ë¡ľ":7356,"ĠìĿ¼ìľ¼":7357,"íĤ¬ë§ģíĥĢìŀĦ":7358,"Ġê°ĲëıħìĿĦ":7359,"Ġìŀ¬ë¯¸ìŀĪìĬµëĭĪëĭ¤":7360,"Ġë°ĺëĮĢ":7361,"ë°ķì£½":7362,"Ġë§¤ëĭĪìķĦ":7363,"ĠëĤĺìĺ¤ëĬĶëį°":7364,"ëĿ¼ëĬĶê²Į":7365,"Ġë¡ľì½Ķ":7366,"Ġìĸ´ëĸ¨":7367,"ĠëĬĲëĤĮìĿĢ":7368,"ĠíŀĺëĤ´":7369,"Ġì£¼ìĿ¸ê³µëĵ¤":7370,"ê°ĲëıĻëıĦ":7371,"ĠëĭµìĿ´":7372,"ëĤ¬ìĿĮ":7373,"Ġê¹Ĭê²Į":7374,"ĠìłĲìĪĺëĬĶ":7375,"ĠìłĲìĪĺì¤Ģ":7376,"ĪëįĶëĿ¼ë©´":7377,"ìľłì¹ĺíķľ":7378,"ìľłì¹ĺíķĺê³ł":7379,"Ġë§Įëĵ¤ìĹĪìĿĦê¹Į":7380,"Ġê·ĢìĹ½ëĭ¤":7381,"Ġãħīãħīãħī":7382,"ĠíĥĦíĥĦíķĺê³ł":7383,"ì¶ĶìĸµìĿĺ":7384,"21":7385,"od":7386,"ot":7387,"¤ëĭ¤":7388,"ìĿĺë¥¼":7389,"ìķĦì§Ģ":7390,"Ġê·¸ê²ĥìĿĦ":7391,"ê¹ĥ":7392,"Ġì¢ĭìĿĦëĵ¯":7393,"Ġëĭ¤ìĭł":7394,"ìŀĪì§Ģ":7395,"Ġìĥĺ":7396,"ìķĺìľ¼ë©´":7397,"êµŃìĿĺ":7398,"ĠìķĪìĸ´ìļ¸":7399,"Ġìµľê³łìŀĦ":7400,"ë¬´íĺĳ":7401,"ë¹Ħì¶Ķ":7402,"ìĺĢëĤĺ":7403,"ê±¸ìŀĳ":7404,"Ġë¹Ħíĸī":7405,"ëıĻìĽĲ":7406,"Ġìĭ¤íĹĺ":7407,"ì§ĪìķĬ":7408,"ìĬ¨ìĿ´":7409,"ëŀĢíĭ°":7410,"ĠìķĦê¹ĿëĦ¤":7411,"Ġë¶Īê°ĢëĬ¥":7412,"Ġì²ĺìĿĮìĹĶ":7413,"Ġê·¹ëĭ¨":7414,"ì©į":7415,"Ġëĭ¹ìĹ°íŀĪ":7416,"ĠëĬĲëĤĮìĿ´ëĭ¤":7417,"ê°ĲëıĻìĿ´":7418,"Īë°©":7419,"ì£½ë°ķì£½":7420,"Ġì»¸":7421,"ĠíĮĮê´´":7422,"Ġëĭ´ê¸´":7423,"ĠìŀĬê³ł":7424,"Ġìķ¼íķľ":7425,"Ġë¬´ìĹĩìĿ¸ê°Ģ":7426,"ĠíıŃë°ľ":7427,"ĠíıŃíĴį":7428,"ì²łíķĻ":7429,"ë§ĪìĿĮìĹĲ":7430,"Ġëª»ë³´ê²łëĭ¤":7431,"Ġìŀ¤ëĭ¤":7432,"Ġìĭľë¦¬ì¦":7433,"íķĺëĶĶ":7434,"íķĺëĭĪê¹Į":7435,"ê°ĢëģĶ":7436,"ëĤĺê°ĢëĬĶ":7437,"ëĿ¼ìĿ¸":7438,"ëŁ¬ëĿ¼":7439,"ìŀĲë§ī":7440,"ìĽŁ":7441,"ĠìĹĨëĥĲ":7442,"ìłģìľ¼ë¡ł":7443,"Ġë§ĮëĤľ":7444,"Ġìŀ¬ë¯¸ìŀĩ":7445,"ìĤ¬ê·¹":7446,"ê²łëĬĶëį°":7447,"ê°ľëħĲ":7448,"~~^^":7449,"ìĹĪëĭ¤ë©´":7450,"ìĶ¹":7451,"ìŀ¬ë¯¸ìĹĨëĬĶ":7452,"Ġë§Įëĵ¤ìĸ´ìĦľ":7453,"ĠëĤ´ìļ©ìĹĲ":7454,"ĠìĤ¬ëŀĳíķ´ìļĶ":7455,"ìľĦê°Ģ":7456,"ìľĦíķľ":7457,"Ġëĭ¤ìĭľë³´ëĭĪ":7458,"ìĬ¨ìĿĺ":7459,"íļĮê°Ģ":7460,"Ġíĥĵ":7461,"ĠìĿ´íķ´ìķĪ":7462,"ĠìĪĻ":7463,"Ġê´ľì°®ìķĺëĬĶëį°":7464,"ìŀĺëª»":7465,"Ġê¹Ģë¯¼":7466,"ëĤ´ìļ©ìĿ¸ì§Ģ":7467,"ĠëĲ¬":7468,"Ġê³¼íķĻ":7469,"ì¡Įëįĺ":7470,"Ġë§İìĿĢê±¸":7471,"ĠíĴĪ":7472,"ĠìķĬìĿĢëį°":7473,"ìķ¡ìħĺëıĦ":7474,"ì´Īëĵ±íķĻêµĲ":7475,"ĠìĨĮìŀ¬ìĻĢ":7476,"Ġìĭľìŀĳíķ´ìĦľ":7477,"Ġìŀ¬ë¯¸ëıĦìĹĨê³ł":7478,"ëłĪìĿ´ëĵľ":7479,"ìķĹëĭ¤":7480,"Ġëķ¡":7481,"ĠëķĲ":7482,"Ġìķ½ê°ĦìĿĺ":7483,"êµ³êµ³":7484,"ì´Īë°ĺìĹĲ":7485,"ĠìĨĮì¤ĳíķ¨ìĿĦ":7486,"Ġìĸ´ë¦´ìłģ":7487,"ìĽ¨ìĿ´":7488,"ĠìĹ¬ëŁ¬ê°Ģì§Ģ":7489,"ê¶ģê¸Ī":7490,"ĠíĬ¹ë³Ħíķľ":7491,"Ġëĳĺì§¸ì¹ĺê³ł":7492,"ë·°":7493,"ëĭ¤ë§Į":7494,"ê¸°ìĻĢ":7495,"ëĤĺë¥¼":7496,"ìķĦìĹŃ":7497,"Ġê°Ŀ":7498,"ëį°ë¯¸":7499,"ĠìķĦëŀĺ":7500,"ĠìķĦíĮĮ":7501,"ìĭľê¸°":7502,"ë³´ìĭľê¸¸":7503,"ëĮĢìĹĲ":7504,"ìŀĪìľ¼ë©´":7505,"ìĥģìĹĲ":7506,"Ġìĸ´íľ´":7507,"ìĭłëıĦ":7508,"Ġê±±ìłķ":7509,"ëķĮë§¤":7510,"ìĨĮê°Ģ":7511,"ëĵ¤ìĿ´ëŀĳ":7512,"ìłķë§Ĳë¡ľ":7513,"Ġë¯¸ì³¤":7514,"ëĲĺëĤĺ":7515,"ìĦłìĿ´":7516,"ìĦłíĥĿ":7517,"íĭĭ":7518,"ëıĻë¬¼":7519,"ĠëŃĲê³ł":7520,"ĠëŃĲíķĺëĬĶ":7521,"ĠìĹŃëŁī":7522,"Ġë°Ķëĭ¤":7523,"ĠìĹĨëĬĶê²Į":7524,"ì²Ńì¶ĺ":7525,"ĠìĭłìĿĺ":7526,"Ġì£½ìĹ¬":7527,"ĠìĿ´íķ´íķłìĪĺ":7528,"Ġë°°íĬ¸ë§¨":7529,"ìŀĺë§Įëĵ¤":7530,"...........":7531,"íĮĮì¹ĺëħ¸":7532,"ĠìłĲìĿ´":7533,"ë¹łìł¸":7534,"íıīìĥĿ":7535,"ì§ĢìķĬëĬĶëĭ¤":7536,"ĠìĥĿìĹĲ":7537,"Ġë´Ĳìķ¼íķĺëĬĶ":7538,"ëĪĦêµ°":7539,"ìĽĶíķľ":7540,"ĠìĭľëĮĢìĹĲ":7541,"ĠìĿ´ë¦ĦìĿ´":7542,"Ġê°ĸëĭ¤":7543,"ìķĮë°Ķëĵ¤":7544,"Ġìŀĺëª»ëĲľ":7545,"Ġì«ĵ":7546,"Ġì¹ľêµ¬ê°Ģ":7547,"Ġë§ĮìłĲìĹĲ":7548,"âĺħâĺħ":7549,"ë¦¬ë©´ìĦľ":7550,"ĠíĿ¡ìŀħ":7551,"Ġê°Ģë²¼ìļ´":7552,"ìĹĲëĮĢíķ´":7553,"?..":7554,"ĳ¼":7555,"íķĺìĭ¤":7556,"¬ë½ķ":7557,"Ġíĺģ":7558,"ìĭ¼":7559,"ëĤĺìģĺ":7560,"ĠëĤ¯":7561,"ëĵ¤íķľíħĮ":7562,"ìĿ¸ê²Į":7563,"Ġë³´ëĿ¼ê³ł":7564,"Ġê·¸ê²ĥìĿ´":7565,"ĠëĤĺìĺ¬ëķĮ":7566,"ĠíķĺìĹ¬":7567,"ìķ¼íķľëĭ¤":7568,"ì£¼ì§Ģ":7569,"ì£¼ìĿ¼":7570,"ìłģìĿ´ëĿ¼":7571,"ĠìĻ¤ì¼Ģ":7572,"ê³¼ê±°":7573,"ìķĺëĦ¤":7574,"íĶĶìĿ´":7575,"ì¹ĺìĿĺ":7576,"ĠìĨĶ":7577,"Ġìŀ¬ë°ĮìĹĪëįĺ":7578,"ĠìķĪê°Ģ":7579,"ĠëŃ£":7580,"ĠìĻľê³¡":7581,"íĬ¸ë¥¼":7582,"ìłĢì§Ī":7583,"ëįĶë§¨":7584,"ë²Ħë¦´":7585,"Ġìľłíĸī":7586,"Ġìŀ¥ìķł":7587,"ĠìĤ¬ëŀĮìĿ´ëĿ¼ë©´":7588,"ĠëĤ´ìļ©ìĿĺ":7589,"ëĭĺìĿĢ":7590,"Ġë§¤ë¯¸":7591,"Ġë§¤ëģĦ":7592,"ë§Īë¥´":7593,"Ġìĭľê°Ħë§Į":7594,"Ġì£½ê³ł":7595,"ĠëıĦë¬´ì§Ģ":7596,"ĠíķľêµŃìĹĲìĦľ":7597,"Ġëĭ¹íĻ©":7598,"Ġìļ¸ë©´ìĦľ":7599,"Ġë§Ŀê°Ģ":7600,"Ġë§ŀìķĦ":7601,"ĠìłķëıĦëĬĶ":7602,"ìĤ¬ëŀĳìĿĦ":7603,"Ġíİ¸ìķĪ":7604,"Ġê³µê°Ĳíķł":7605,"Ġë²Ħë¦¬ê³ł":7606,"Ġíĺ¸ê¸°":7607,"ìŀĸìĿĢ":7608,"ĪëįĶëĿ¼":7609,"Īë³´ëĭ¤":7610,"ĠìĬ¤íĨłë¦¬ëĿ¼":7611,"ê·¸ëŁ°ëį°":7612,"Ġë¨¼ê°Ģ":7613,"ìľ¼ë©´ìĦľëıĦ":7614,"ìĸ´ë¦°ìĭľìłĪ":7615,"Ġë¶Īíİ¸íķľ":7616,"ĠãĦ·ãĦ·ãĦ·":7617,"ĠìļĶìĨĮê°Ģ":7618,"Ġë£¨ì¦Ī":7619,"ĠìľłìĿ¼íķĺê²Į":7620,"Ġì»¨ìħī":7621,"ëıħíĬ¹íķľ":7622,"Ġìłłìŀ¥":7623,"ì¹´íĶĦë¦¬ìĺ¤":7624,"ĠK":7625,"ĠìĺģíĻĶìĺĪìļĶ":7626,"ĠìĹ¼":7627,"ëĤĺìĿ´íĬ¸":7628,"ĠìłĪë¡ľ":7629,"ëĵ¤ëģ¼ë¦¬":7630,"ìłķìĹĲ":7631,"ìłķì©¡":7632,"ë§ĪìĿĺ":7633,"ê¹Įì§Ģë§Į":7634,"ìļ°ë¦¬ê°Ģ":7635,"ìĥģê³¼":7636,"ê°ĦìĹĲ":7637,"Ġìĸ´ëĶ":7638,"Ġìĸ´ëķ":7639,"ëĵľëŁ½ê²Į":7640,"ì¹ĺë¥¼":7641,"Ġë¬´ëĤľ":7642,"ë¶Ħëªħ":7643,"ĠìĥĿê°ģëĤĺ":7644,"Ġë§ĲìķĦìķ¼":7645,"Ġë§Ĳê³łëĬĶ":7646,"Ġëª»ë´Ĳì£¼":7647,"íı¼":7648,"ĠìľłìķĦ":7649,"ëĲĺëĬĶëį°":7650,"ì¡°ìĦł":7651,"Ġëªħìŀ¥ë©´":7652,"Ġëªħë³µìĿĦ":7653,"ìĹŃíķł":7654,"ë°ĺê°ľëıĦ":7655,"Ġíķłë§Ĳ":7656,"ëĭµê²Į":7657,"Ġê¸°ìĸµëĤĺëĬĶ":7658,"ìķĮê³ł":7659,"ìĤ¬ëŀĮìĿĦ":7660,"ë¨¹ìĿĦ":7661,"íħĮëŁ¬":7662,"ë¦¼ìĿ´":7663,"ĠíŀĺìĿĦ":7664,"Ġì¤ĦìĪĺ":7665,"Ġë§Įëĵ¤ìĸ´ëĿ¼":7666,"ĠìĦľìļ¸":7667,"ì¡Įìĸ´ìļĶ":7668,"ĠìĿ¸ìĥĿìĹĲ":7669,"ĠìĪĺì¤ĢìĿĦ":7670,"Ġì¶Ķì²ľíķĺê³ł":7671,"ëģĿëĤĺ":7672,"Ġì¦Ĳê¸°":7673,"Ġë³´ê²ĮëĲľ":7674,"Ġëį°ë·Ķ":7675,"Ġì«Ħ":7676,"Ġë¹ĽëĤĺëĬĶ":7677,"ëļ±ë§ŀ":7678,"ĠëļĿ":7679,"Ġìĵ¸ëį°ìĹĨìĿ´":7680,"ãĢĤ":7681,"ovie":7682,"ìķĪíĥĢê¹Ŀ":7683,"Ġì§ľì§ĳê¸°":7684,"ĠíĺĲìĺ¤":7685,"ëŀĢíĭ°ëħ¸":7686,"^-^":7687,"im":7688,"êº":7689,"ĨĴ":7690,"ê°Ģìļ´":7691,"ê¸°ë²ķ":7692,"ìķĦíĶĦ":7693,"ìĬ¤ìĻĢ":7694,"ìĬ¤íİĺ":7695,"ì§Ħì§Ģ":7696,"ìĺ¤ëŀ«":7697,"ê·¸ëŁŃìłĢëŁŃ":7698,"ì°¬ëŀĢ":7699,"ë¶ĢìĹĲ":7700,"ê°ľë¥¼":7701,"ìłĢë¦¬":7702,"ĠìĨĮìĨĮíķľ":7703,"ìĽĲìĿĢ":7704,"ĠëĵľëĿ¼ë§ĪìŀħëĭĪëĭ¤":7705,"Ġë°°ìļ°ëĬĶ":7706,"ì¡°ìķĦ":7707,"ĠìĤ¬ëŀĳíķ´":7708,"ìļ¸ë¿Ĳ":7709,"Ġì¢ĭìķĺìĿĦíħĲëį°":7710,"ìĺĪìģĺ":7711,"Ġìķ¡ìħĺê³¼":7712,"êµĲíĽĪ":7713,"Ġëª°ëĿ¼":7714,"ìĭľê°ĦëıĻìķĪ":7715,"ĠëĳĲê·¼":7716,"ëª»íķĺëĬĶ":7717,"ê²°ë¡ł":7718,"ĠìĹ¬ìŀĲëĬĶ":7719,"ëĤ´ìļ©ìĿĦ":7720,"Ġë³¼ë§ĮíĸĪëĭ¤":7721,"Ġê±´ê°Ģ":7722,"Ġì°¾ìķĦìĦľ":7723,"ĠìĻ¸ë¡ľ":7724,"Ġë¨¹ëĬĶ":7725,"Ġë§ĲìĿ´íķĦìļĶ":7726,"ëģĿëĤĺê³ł":7727,"Ġëĸ¨ìĸ´ì§Ģ":7728,"Ġê³±":7729,"ĠìĤ¶ìĿ´":7730,"Ġìŀłëĵ¤":7731,"ìĹ¬ëħ":7732,"ìĽĲìŀĳìĿĺ":7733,"Ġë¬´ìĦŃê³ł":7734,"Ġëĵ¤ìĸ´ê°Ģ":7735,"ì¿µ":7736,"ĠìķĬìķĺì§Ģë§Į":7737,"ìķĪëĲĺê³ł":7738,"ĠìķĶê±¸":7739,"ìŀĲì²´ëĬĶ":7740,"ìħĶìķ¼":7741,"Ġíģ´ëŀĺ":7742,"Ġë³´ìķĺëįĺ":7743,"Ġëĭ¬ì½¤":7744,"ĠìĿ´ê²ĥë³´ëĭ¨":7745,"ìĸ´ë¦°ìĿ´":7746,"ĠìĥĿê°ģíķ´ë³´ê²Į":7747,"ĠíĿĳìĿ¸":7748,"Ġê°ĢëĬ¥íķľ":7749,"ĠíĿĺëŁ¬ê°ĢëĬĶ":7750,"Ġ:)":7751,"ìĭłìĦłíķľ":7752,"ë§ĺìĹĲ":7753,"Ġê°Ģê¹Įìļ´":7754,"Ġê±°ì§ĵë§Ĳ":7755,"OST":7756,"nd":7757,"£Į":7758,"íķĳ":7759,"ê³łëıĦ":7760,"íķĺìķĦ":7761,"íķĺëĬĺ":7762,"ìĿĢê±°":7763,"ìĸ´ë¥¼":7764,"ìĿ¸ìĹĲ":7765,"ĠìķĦëĨĶ":7766,"íķ´íĶ¼":7767,"ìĺģíĻĶë³´ê³ł":7768,"ë³´êµ¬":7769,"ìĬ¤íı¬":7770,"ìŀĲë¦¬":7771,"ĠëĤĺìĿĦëĵ¯":7772,"ìĥģìĥģ":7773,"íĺĶ":7774,"ê·¸ìĿĺ":7775,"ĠìĭľìĤ¬íļĮ":7776,"Ġìµľë¯¼":7777,"ìĭłê¸°":7778,"Ġìŀĺíķľëĭ¤":7779,"Ġì£¼ìĦ±ì¹ĺ":7780,"íİ¸ìĹĲìĦľ":7781,"íĥĢê³ł":7782,"ë²Ħë¦¬":7783,"Ġë²¨":7784,"ĠìĤ¬ìļ´ëĵľ":7785,"ëªħíķľ":7786,"Ġì¡°ì°¨":7787,"Ġìĭ¶ìĹĪëĭ¤":7788,"Ġìĭ¶ìĹĪëįĺ":7789,"Ġì¢ĭìķĦíķĺì§Ģë§Į":7790,"íķĺì§Ģë§Ĳ":7791,"ĠìĹŃê²¨":7792,"ê»Ģ":7793,"ëħ¸ì¶ľ":7794,"íıīìłĲë³´ê³ł":7795,"ĠíĻĢ":7796,"Ġë¶ĦëŁī":7797,"ì¹ľêµ¬ëĵ¤":7798,"ìĤ´ìĿ´":7799,"ë³¼ìĪĺ":7800,"íķĺê¸°ìĹĶ":7801,"Ġë§Įëĵ¤ìĸ´ëĤ¸":7802,"Ġìłģìĸ´ëıĦ":7803,"ĠìĿ¸ìĥĿìĿ´":7804,"ìĤ¬ëŀĳê³¼":7805,"Ġëª¨ìĬµìĿĢ":7806,"Ġê³µê°ĲëıĦ":7807,"ĠëĨĢëŀĲëĭ¤":7808,"ëŁ¬ëĥĲ":7809,"ĠìŀłìĿ´":7810,"ĠëĬĲëģ¼ê³ł":7811,"Ġë¹¼ê³¤":7812,"íķĺìĭľê³ł":7813,"Ġìŀ¼ìŀĪìĸ´ìļĶ":7814,"Ġë°°ê²½ìľ¼ë¡ľ":7815,"ĠëĵľëĿ¼ë§Īë¡ľ":7816,"íıŃëł¥":7817,"Ġì£¼ìłľê°Ģ":7818,"ĠìķĮìķĺìĿĮ":7819,"íķĦë²Ħê·¸":7820,"ĠìŀĥìĿĢ":7821,"ìĹĦì²ŃëĤľ":7822,"Ġê°Ķëĭ¤":7823,"ĠëĥĦìĥĪ":7824,"Ġëĭ¤íĸīìĿ´ëĭ¤":7825,"Ġìĸ´ëłµëĭ¤":7826,"ĠìĿ´ëŀĺìĦľ":7827,"ĠìķĪë³¸ëĭ¤":7828,"ĠíĹĽìĽĥìĿĮ":7829,"ê°ľìĹ°ìĦ±":7830,"ì¢ħìĿ¼ê´Ģ":7831,"ë¶ĪíĹĪìłĦ":7832,"ª©":7833,"³¼":7834,"ê³±":7835,"ìļ¤":7836,"ì§Ģë¶Ģ":7837,"ëĤŃ":7838,"ĠìĺģíĻĶìĿ´":7839,"ĠìĺģíĻĶìĿ¸ì¤Ħ":7840,"ìĿĦìĪĺê°Ģ":7841,"Ġë§´":7842,"íķ´ìł¸":7843,"Ġë³´ëĭ¨":7844,"ìłĲìĹĲ":7845,"ìŀĲëıĦ":7846,"ì§Ħíĸī":7847,"ĠìĹ°ê·¹":7848,"ĲëıĮ":7849,"ìķĺëĦ¤ìļĶ":7850,"Ġëª¨ë¥¸ëĭ¤":7851,"êµŃë¯¼":7852,"ë¶Ħëĵ¤ìĿ´":7853,"ìħ§":7854,"ĠìķĪì¢ĭìķĦ":7855,"~~!!":7856,"Ġì§Ħì§ľë¡ľ":7857,"Ġêµīìŀ¥":7858,"Ġê°ľìĦ±":7859,"ĠìĨĮíĻĶ":7860,"ë¹ħ":7861,"^^*":7862,"Ġìĭ¶ìĸ´ìĦľ":7863,"ĠíĮį":7864,"ì¦ĿìĿ´":7865,"ìĺĪì§Ħ":7866,"Ġëª¨ë¥´ì§Ģë§Į":7867,"ìŀĪëĬĶìĺģíĻĶ":7868,"Ġë§Īì§Ģë§īìĹĶ":7869,"Ġë§Ŀì¹ĺ":7870,"Ġë³´ê¸°ê°Ģ":7871,"ëĶ©ëķĮ":7872,"Ġìłģëĭ¹íŀĪ":7873,"ëįĶëĿ¼ë©´":7874,"ìĬ¹ìłĦ":7875,"ëŁ¬ë¸Į":7876,"ì²ĺìĿĮìĹĲëĬĶ":7877,"Ġìĸ´ëĶĶë¡ľ":7878,"ĠìĨĮìŀ¬ëıĦ":7879,"Ġì¹´ë©Ķ":7880,"ëĪĦêµ¬":7881,"ĠìķŀëĴ¤":7882,"ĠëĶĶìĽĮ":7883,"ĠìĺģíĻĶëĿ¼ìĦľ":7884,"Ġê·¸ìłĢê·¸ëŁ°":7885,"Ġì±ħìĿĦ":7886,"Ġë§Įëĵ¤ìĹĪëĤĺ":7887,"Ġëķħ":7888,"ĠíĿĶëĵ¤":7889,"ĠìĻĶìĬµëĭĪëĭ¤":7890,"Ġíĸ¥ìĹ°":7891,"ĠìĹ¬ì£¼ê°Ģ":7892,"ĠìĹ¬ëŁ¬ë¶Ħ":7893,"ĠíķĻêµĲìĹĲìĦľ":7894,"Ġê°ķëł¬íķľ":7895,"ë¤Ħ":7896,"ìķĦëĭĪë©´":7897,"íģ¬ëłĪëĶ§":7898,"18":7899,"SF":7900,"ay":7901,"et":7902,"ê°Ģë¦¬":7903,"ê²ī":7904,"ëĿ¼ìĹĲ":7905,"ëĦĮ":7906,"ìĭľìĿĺ":7907,"ë³´ëĦ¤ìļĶ":7908,"ìĬ¤íĭ±":7909,"Ġë°ı":7910,"ìŀĲë©´":7911,"íķĺê³łëĬĶ":7912,"Ġìµľì´Ī":7913,"ì¹ĺëıĦ":7914,"êµ¬ìĹŃ":7915,"Ġëª¨ìļķ":7916,"Ġìłķë§ĲìĿ´ì§Ģ":7917,"Ġë¬´ëĦĪ":7918,"ĠìŀĲê¸°ê°Ģ":7919,"íİ¸ê³¼":7920,"ĠíıīìłĲë³´ê³ł":7921,"Ġë©ĶìĿ´":7922,"Ġë¹Ļ":7923,"ĠëģĿëĤłëķĮ":7924,"Ġìļ°ë¦¬ëĵ¤":7925,"Ġê°ĲëıħëıĦ":7926,"ĠìĤ¬ëŀĳíķ©ëĭĪëĭ¤":7927,"Ġë°ĺìĺģ":7928,"ëĳĲë²Ī":7929,"ĠíĽĦìĹĲ":7930,"ĠëĶ°ë¦Ħ":7931,"ì§ĳìĸ´":7932,"ì§ĢìķĬëĭ¤":7933,"Ġì°¾ëĬĶ":7934,"ĠìķĦë¬´ëıĦ":7935,"íĥĦíĥĦ":7936,"ì¢ħìĺģ":7937,"Ġì¹ĺìľł":7938,"ĠëĬĲê»´ì¡Įëĭ¤":7939,"ĠëıħìĿ¼":7940,"ì¸Ħ":7941,"ê·ĢìĹ¬ìļ´":7942,"ĠëĴ¤ìĹĲ":7943,"Ġìĭľë¦¬ì¦Īì¤ĳ":7944,"Ġê¸¸ìĿ´":7945,"Ġ60":7946,"ĠíĻ©ëĭ¹íķľ":7947,"Ġê¸ĢìİĦ":7948,"ì±ĦëĦĲ":7949,"íĸĩëĬĶëį°":7950,"ìĨĮìŀ¬ê°Ģ":7951,"ë³´ì§Ģë§ĪëĿ¼":7952,"íĿ¥íĸī":7953,"ì§ľì¦ĿëĤĺ":7954,"ĠëķĢ":7955,"Ġì¢ĭê²łìĬµëĭĪëĭ¤":7956,"ĠìĹĦë§Īê°Ģ":7957,"ĠëŁ¬ìĭľìķĦ":7958,"Ġëľ¬ê¸ĪìĹĨëĬĶ":7959,"ì§Ģëª»íķł":7960,"Ġëª©ìĨĮë¦¬ê°Ģ":7961,"ĠìĿ¸íĦ°ëĦ·":7962,"ì¥¬ìĸ¼":7963,"Ġì§Īì§ĪëģĮ":7964,"Ġ,,":7965,"ĠìŁ":7966,"ëĭĲ":7967,"ìĿĺìĭĿ":7968,"ê¸°ìľĦíķ´":7969,"ĠìĹ®":7970,"ìĺĽ":7971,"ìĺģíĻĶìłľ":7972,"Ġê·¸ëĭ¹ìĭľ":7973,"ìĬ¤íħĶ":7974,"ìŀĲê·¹":7975,"ë§Īë¦¬":7976,"ìĹĨìĸ´ìļĶ":7977,"ìĹĨìĹĪëĭ¤":7978,"ĠëĤĺìĿĮ":7979,"ĠëĤĺì¤ĳ":7980,"ĠëĤĺëŀĳ":7981,"Ġíķĺë©°":7982,"Ġìłķë³´":7983,"Ġì§Ģê²¹ëĭ¤":7984,"ĠìĦ¬ë":7985,"ë¯¸íĻĶ":7986,"ìĭłë¶Ħëĵ¤":7987,"ĠìĽħ":7988,"~~~~~":7989,"ìĭ¤ìłľ":7990,"Ġë§ĲìĶĢ":7991,"ĠìĹ¬íĥľ":7992,"ĠìŀĲê³ł":7993,"ĠìłľìŀĦìĬ¤":7994,"Ġë¹ķëĭĪëĭ¤":7995,"ĠìĤ¬ëŀĮëĵ¤ìĿĦ":7996,"Ġë¶Ģëĭ´":7997,"ĠëģĿìĹĲ":7998,"ĠíĮ¬ëĵ¤":7999,"ĠìłĢíıīê°Ģ":8000,"ë°ĶíĥĢ":8001,"ìŀ¼ìŀĪ":8002,"ì¶ĶëĬĶ":8003,"íĽĦìĹĲ":8004,"Ġìŀ¥ë©´ëĵ¤ìĿ´":8005,"Ġíıīê·ł":8006,"ĠëıĻëĦ¤":8007,"ëª»íķľ":8008,"Ġê´ľì°®ê²Į":8009,"ë³µìĪĺ":8010,"ĠìĹ¬ìŀĲëĵ¤":8011,"ìĽĥê¸´":8012,"Ġìĭ¬ìŀ¥":8013,"ĠìĦłìĤ¬":8014,"ë°ĽìĿĦ":8015,"Ġìłģëĭ¹íķľ":8016,"Ġë°ķìĪĺ":8017,"ìĤ¬ëŀĳìĿĢ":8018,"ìĻ¸êµŃ":8019,"Ġê·¸ëłĩì§Ģë§Į":8020,"Ġê¿Ģ":8021,"ĠìĽĲìŀĳìĿĺ":8022,"ëħĦëĮĢìĹĲ":8023,"ë¸ĶëŀĻ":8024,"ê·Ģìĭł":8025,"Ġë³ĢíĻĶ":8026,"íĺľìĦł":8027,"ëĳĶ":8028,"ĠìŀĪìĹĪìľ¼ë©´":8029,"Ġê·ĢìĹ¬ìĽĢ":8030,"ê·¸ëŁ°ì§Ģ":8031,"ĠìķĮìķĺëĦ¤":8032,"íģ¬ë£¨":8033,"ĠìĻłë§Įíķĺë©´":8034,"................................":8035,"Ġíĺ¹ìĭľ":8036,"ê³³ìĹĲ":8037,"ìį©":8038,"Ġì§Ħì§Ģíķĺê²Į":8039,"ë¡ľë§¨íĭ±":8040,"Ġë³´ìĭľë©´":8041,"Ġë§¡ìĿĢ":8042,"ìłĦì²´ìłģìľ¼ë¡ľ":8043,"íķµëħ¸ìŀ¼":8044,"ĠìķĪë¬´ìĦľ":8045,"ê°±ìĿ´":8046,"ĠìĿ´ëıĦìłĢëıĦ":8047,"ck":8048,"~âĻ¥":8049,"Ġ&":8050,"ĠW":8051,"ŃĪ":8052,"ìĿ´íĶĦ":8053,"ìķ¡":8054,"Īë¹Ħ":8055,"ĠìĿ´ëĭ¤":8056,"ĠìĿ´ëłĩ":8057,"ĠìĿ´ë³´ëĭ¤":8058,"ë¦¬ìĸ¼":8059,"ìķĦì§Ħì§ľ":8060,"ìķĦëĪĦ":8061,"ì²¼":8062,"ĠëĤĺë¬´":8063,"ĠëĤĺìĿ´ê°Ģ":8064,"Ġëĭ¤íģ¬":8065,"Ġìĸ´ìłľ":8066,"Ġê¸°íļį":8067,"ë¬»":8068,"ĠìĪĺë¡Ŀ":8069,"ë¶ĦíŀĪ":8070,"ê²łìĸ´":8071,"ê²łëĭ¤ê³ł":8072,"Ġë§Īìĭľê¸¸":8073,"ëĵ¯íķĺëĭ¤":8074,"ìľłë°ľ":8075,"ì²´ìłģ":8076,"ëĦĪë¬´ëĤĺëıĦ":8077,"ĠëĵľëĿ¼ë§ĪìĿĺ":8078,"ĠìĤ¬ìĿ´ì½Ķ":8079,"ìĺģìĿĺ":8080,"Ġíķ¸":8081,"ì¡°ìļ©":8082,"ìŀ¬ë°ĮëĦ¤":8083,"Ġë°Ķëĭ¥":8084,"ëĸ¨":8085,"Ġìĭ¤ê°Ĳ":8086,"ìŀ¼ìŀĪìĸ´ìļĶ":8087,"ëĿ¼ê³łìļĶ":8088,"ĠìĤ´ë¦¬ì§Ģ":8089,"Ġíķłë¦¬ìļ°ëĵľ":8090,"ĠìķĦëĭĪìŀĸìķĦ":8091,"ĠìĿ´íķ´ë¶Īê°Ģ":8092,"Ġì§ľë¦¿":8093,"ĠíķľêµŃìĿĺ":8094,"ĠëĤľë¬´":8095,"ìĿĦê¹ĮìļĶ":8096,"Ġì§Ģê¸ĪìĿĺ":8097,"íĥľíĺĦ":8098,"Ġì§ľì¦ĿëĤĺê²Į":8099,"ĠìĦľìĸĳ":8100,"ĠìĥĿê²¼":8101,"ĠìĬ¤ë¦´ëıĦ":8102,"Ġë°©íķ´":8103,"ëĭ¤ëĭĪëĬĶ":8104,"ìĦĿê·ľ":8105,"ĠìĹ°ê¸°ëł¥ìĹĲ":8106,"íĳľìłķ":8107,"ĠìĽĲìŀĳìĿ´":8108,"ì§Ģê¸ĪëıĦ":8109,"êº¼ë©´":8110,"ìĻķêµŃ":8111,"Ġë³´ê²ĮëĲĺ":8112,"Ġë¦¬ì¦Ī":8113,"ìĬ¬íĶĪ":8114,"Ġë¬´ìĦŃê²Į":8115,"Ġìŀ¼ìŀĪìĿĮ":8116,"ĠíħĲ":8117,"ë¡Ńê²Į":8118,"Ġë¯¼íıĲ":8119,"ì§Ħìĭ¬ìľ¼ë¡ľ":8120,"ĠíĤ¤ìĬ¤":8121,"Ġìĸ¸ìłł":8122,"ë§ĪìĿ´íģ´":8123,"Ġë¯¸ìĨĮê°Ģ":8124,"Ġëħ¹ìķĦ":8125,"ìłĲë§ĮìłĲìĹĲ":8126,"Ġë±ĢíĮĮìĿ´ìĸ´":8127,"Ġìĸ´ëĳ¡":8128,"dd":8129,"©į":8130,"Ġìª¼":8131,"ìĿ´ëķĮ":8132,"Ġìķµ":8133,"ĠìĿĦ":8134,"ĠìĺģíĻĶê°Ļ":8135,"Īë¥¼":8136,"ìĿĦê²ĥ":8137,"ìļĶíķľ":8138,"ĠëĤ¬ëĭ¤":8139,"ìĺ·":8140,"ìĺģíĻĶê´Ģ":8141,"ìłĲìĿ´ëĤĺ":8142,"ê±°ê°ĻìĿĢëį°":8143,"ìłķë¯¼":8144,"ì§Ħì°½":8145,"Ġëĭ¤ëħĢ":8146,"ìłĦìĿĺ":8147,"Ġìĸ´ì§¸":8148,"ëĵľë§Į":8149,"ĠìĬ¤íĥ":8150,"ĠìĬ¤íĭ°":8151,"ĠëıĪë²":8152,"Ġì°¢":8153,"íŀĪìĸ´ë¡ľ":8154,"ëŁ¬ì§Ģ":8155,"ìħ°":8156,"ìĨĮìŀ¥":8157,"Ġë§ĲìĿ¸ê°Ģ":8158,"ìĭ¬ìĹĲ":8159,"ĠëĵľëĿ¼ë§Īëĭ¤":8160,"Ġë°°ìļ°ëĵ¤ìĿĢ":8161,"ë¯Ģë¡ľ":8162,"Ġìļ°ìĹ°":8163,"ì¡°íĺĦ":8164,"ë°Ķëĭ¥":8165,"ĠìĹŃê²¨ìļ´":8166,"Ġìĭľê°ĦìķĦê¹Ŀëĭ¤":8167,"ëĬĲëĥĲ":8168,"Ġë¶Īê³¼":8169,"Ġë©ĭì§Ģê²Į":8170,"ì£¤":8171,"ìĿ´ê±°ë³´ê³ł":8172,"Ġë°°ê¸ī":8173,"íĺķìĿ´":8174,"Ġì°¨ìĿ´":8175,"Ġë¹łë¥¸":8176,"ĠíķĦìļĶê°Ģ":8177,"ĠìĺģìĥģìĿ´":8178,"ìĻ¸ìĿĺ":8179,"ê¸°ëĮĢë¥¼":8180,"Ġë²Ħë¦°":8181,"ãĦ·ãĦ·ãĦ·":8182,"ĠëĤ«ê²łëĭ¤":8183,"Ġë¹łìł¸ìĦľ":8184,"ĠíĦ°ë¯¸ëĦ¤ìĿ´íĦ°":8185,"ê·¹ìŀ¥íĮĲ":8186,"ĠìĥģíĻ©ìĿĦ":8187,"ĠìĪ¨ê²¨ì§Ħ":8188,"ĠìĻĶëĭ¤":8189,"ĠìĤ¬ë¬´":8190,"ĠìĿĺëıĦê°Ģ":8191,"íĶĦë¡ľê·¸ëŀ¨":8192,"ë²Īë´¤":8193,"Ġì¿µ":8194,"Ġëľ¬ê¸ĪìĹĨìĿ´":8195,"Ġë¶Ģëª¨ëĭĺ":8196,"Ġêµ¬ë¶Ħ":8197,"ë±ħ":8198,"Ġìĵ¸ëį°ìĹĨëĬĶ":8199,"ì«Į":8200,"ĠíĦ¸":8201,"am":8202,"ig":8203,"le":8204,"ê°ĢìľĦ":8205,"ëıĦìķĪ":8206,"ĠìĿ´ìĿĢ":8207,"ĠìĿ´íĨłë¡Ŀ":8208,"ìĸ´ìĬ¤":8209,"ëĵ¤ìĹ¬":8210,"ìĬ¤ì¹´":8211,"ĠìĤ½":8212,"ĠìĤŃìłľ":8213,"ìĤŃ":8214,"ĠëĤĺëłĪìĿ´ìħĺ":8215,"Ġíķĺê¸°":8216,"Ġìłķëĭ¹":8217,"Ġë¶ķ":8218,"íķłìĪĺê°Ģ":8219,"Ġì§Ħë¦¬":8220,"ĠìµľìĨĮ":8221,"ê²ĥìĹĲ":8222,"íĸĪëĭ¤ê°Ģ":8223,"ìĤ¬ëıĦ":8224,"ĠëŃ¥ë¯¸":8225,"ĠëĵľëĦ¤ìļĶ":8226,"Ġê°Ļìķĺëĭ¤":8227,"ë¹Ħíķ´":8228,"Ġë³¼ëł¤ê³ł":8229,"ĠìľłëŁ½":8230,"ĠíĸĪëįĶëĭĪ":8231,"ìĺģìĽĲ":8232,"Ġìķłíĭĭ":8233,"Ġìĭ¶ìĬµëĭĪëĭ¤":8234,"ìŀ¬ë°ĮìĬµëĭĪëĭ¤":8235,"íı¬ìĿ¸íĬ¸":8236,"Ġë³´ëĬĶê±°":8237,"Ġê¸°ëĮĢìĿ´ìĥģ":8238,"Ġê°ķê°Ħ":8239,"ĠëıĻìĺģìĥģ":8240,"ĠìķĦê¹ĮìĽĮìĦľ":8241,"Ġê´ľì°®ìķĺìĿĮ":8242,"ê¹Ģê¸°ëįķ":8243,"Ġëĭ¨ì²´":8244,"Ġë¹łì§ĢëĬĶ":8245,"ĠìĺģìĥģëıĦ":8246,"íķľíħĮëĬĶ":8247,"ì´Īëĵ±íķĻìĥĿ":8248,"Ġê°ľë´īíķľ":8249,"ĠìĨĲë°ľ":8250,"ĠíĿ¥ë¯¸ë¥¼":8251,"ĠãħĦ":8252,"Ġë¶Ģë¶ĦìĿĢ":8253,"ĠìĭľëĤĺë¦¬ìĺ¤ê°Ģ":8254,"ĠìŀĪìĹĪê³ł":8255,"ĠëıĮìķĦë³´ê²Į":8256,"ê²ĥê°ĻëĦ¤ìļĶ":8257,"Ġëĺĳê°ĻìĿ´":8258,"ìŀĳê°Ģê°Ģ":8259,"ĠëĬ¥ê°Ģ":8260,"ì²¨ìĹĶ":8261,"Ġë§ĪìĿ´ëĦĪìĬ¤":8262,"ĠìŀĲê·¹ìłģìĿ¸":8263,"Ġì§Ħì§Ģíķľ":8264,"Ġíģ¬ë¦¬ìĬ¤ë§ĪìĬ¤":8265,"ĠëĪĦêµ°ì§Ģ":8266,"ìŀĪëįĺëį°":8267,"ĠìĦłìĥĿëĭĺ":8268,"Ġìĸ´ëł¸ìĿĦ":8269,"ë¶ĦìľĦê¸°":8270,"Ġíİ¼ì³Ĳ":8271,"Ġë°Ķíĥķìľ¼ë¡ľ":8272,"ed":8273,"Ġis":8274,"ì§Ģê¸Īë³´":8275,"ĠìķĦíĶĦëĭ¤":8276,"Ġë³´ìĿ´ì§Ģ":8277,"Ġê·¸ìķ¼ë§Ĳë¡ľ":8278,"ìĬ¤íĶ¼":8279,"ìŀĲìĿ¸":8280,"ìĹĨëĬĶëį°":8281,"ĠíķĺíĴĪ":8282,"ìĪĺìĦł":8283,"ë²ħ":8284,"ìĥģíĥľ":8285,"Ġìłķìļ°":8286,"Ġê²¬ë":8287,"íķĺê³łìĭ¶ìĿĢ":8288,"Ġìĸ´ê±°ì§Ģ":8289,"ĠìĦŃ":8290,"ê³µì£¼":8291,"ìĹ¬íĥľ":8292,"ĠìĹ°ê¸°íķĺëĬĶ":8293,"ĠìĪĺë©´":8294,"êµ¬ìĻĢ":8295,"ìĭ¤íĮ¨":8296,"Ġë§ĲíĪ¬":8297,"íĥĢì¿ł":8298,"ìĺĢì§Ģ":8299,"Ġíĺĳ":8300,"íĬ¸ëĬĶ":8301,"Ġìĺ¤ëĬĶ":8302,"Ġë¹Ħíĺ¸ê°Ĳ":8303,"ëģĹ":8304,"ìĭ¬ìĭ¬":8305,"Ġë¶ĢìŀĲìĹ°":8306,"Ġìŀ¬ë¯¸ìŀĪìĹĪìĬµëĭĪëĭ¤":8307,"Ġê³łìĸĳìĿ´":8308,"íħľ":8309,"ë§Īëŀĳ":8310,"ì¶Ķìĸ´":8311,"ìĶ¨ëıĦ":8312,"ĠíĻĶìŀ¥ìĭ¤":8313,"íķĺëĤĺíķĺëĤĺ":8314,"ìŀĺìĥĿ":8315,"íķĺê¸°ìĹĲ":8316,"Ġì¡¸ìĹħ":8317,"Ġì¶©ìĭ¤":8318,"ĠìłĦê°ľëĬĶ":8319,"ì¡ĮìĬµëĭĪëĭ¤":8320,"ëŀľìĬ¤":8321,"Ġë¨¹ì¹ł":8322,"Ġãħĭãħĭãħĭãħĭãħĭãħĭãħĭ":8323,"Ġê°Ģì¡±ìĿĺ":8324,"ĠêµŃê°Ģ":8325,"ĠìĿ¸ìĥģìłģìĿ¸":8326,"ĠìĦ¸ìĥģìĿ´":8327,"ĠìĹĶëĶ©ìĿ´":8328,"2014":8329,"ê°ĶëĬĶëį°":8330,"ĠìŀĦíĮ©íĬ¸":8331,"ìĭľëĮĢìĿĺ":8332,"ĠêµĲíĽĪëıĦ":8333,"ĠìłĦì²´ìłģìĿ¸":8334,"ìķŀìĹĲ":8335,"Ġê°ľê·¸ë§¨":8336,"ĠìŀĺìĥĿê²¼":8337,"Ġë¹Īìķ½":8338,"ĠìĺģìĽĲíķľ":8339,"ëĮĢëĭ¨íķľ":8340,"Ġëįĺìł¸":8341,"Ġë°ĿíĺĢ":8342,"ĠíĴĭíĴĭíķľ":8343,"ìłĦë¬¸ê°Ģ":8344,"op":8345,"§íĮħ":8346,"Ġãħĭãħĭãħĭãħĭãħĭãħĭãħĭãħĭãħĭãħĭãħĭãħĭãħĭãħĭãħĭãħĭ":8347,"ħķ":8348,"ĵ¯":8349,"ëĭ¬ë¦¬":8350,"ìĿ´ê²ĥìĿ´":8351,"ëıĦíķľ":8352,"ë¦¬ëŀĳ":8353,"ĠìĺģíĻĶì§Ģ":8354,"ĠìĺģíĻĶìĿ¼":8355,"ëĦĲëıĮ":8356,"Ġë³´ëł¤":8357,"ìĭľì§Ģ":8358,"ìĭľëĦ¤":8359,"ìľ¼ìħ¨":8360,"ĠëĤĺìĹĲê²Ĳ":8361,"Ġíķĺëĭ¤ëĭĪ":8362,"Ġì¢ĭëĦ¤":8363,"ê°ĦíŀĪ":8364,"Ġìĺ³":8365,"Ġê°ĢìĪĺ":8366,"Ġê°ĢíŀĪ":8367,"ì¹ĺë©´":8368,"ĠëĮĢê²°":8369,"ìĿ¼ìĿĢ":8370,"ëŀĺëĵľ":8371,"ìĤ¬ê³ł":8372,"Ġë¬´ê²ģ":8373,"ìħľ":8374,"ĠìķĪëĤĺìĺ¨ëĭ¤":8375,"Ġë§Īì°¬":8376,"Ġëª»ë§Įëĵ¤":8377,"ëĤľíķ´":8378,"ë³¸ì§Ģ":8379,"Ġê²ĥìĿ¸ê°Ģ":8380,"ĠìĿ´ëŁ°ê±´":8381,"ĠëģĿëıĦ":8382,"ëıĻê·¼":8383,"ĠìĤ¬ëŀĳíķĺê³ł":8384,"Ġë³´ëĬĶê²ĥ":8385,"ëĸ¼":8386,"ìŀ¼ìŀĩ":8387,"êµ°ëĮĢ":8388,"ĠíķłëķĮ":8389,"Ġì£½ìĿ´":8390,"ìĺĪìĥģ":8391,"ê·¹íŀĪ":8392,"ë¶ĢíĦ°ëĬĶ":8393,"ĠìĽĲì¡°":8394,"ĠíķľêµŃìĿ¸":8395,"Ġë§Įëĵłê±°":8396,"Ġìŀ¼ìŀĩ":8397,"ì§ĳìĹĲìĦľ":8398,"ĠìĿ´ìĥģìĿĢ":8399,"ĠëĤ®ëĦ¤ìļĶ":8400,"ĠìłģìłĪíķľ":8401,"ìŀ¡ëĬĶ":8402,"íĿ¬ìĿĺ":8403,"Ġìŀ¬ê°ľë´ī":8404,"ëķ¡":8405,"Ġëĭ´ê³ł":8406,"êº¼ìķ¼":8407,"Ġë§īìŀ¥ëĵľëĿ¼ë§Ī":8408,"ëįķë¶ĦìĹĲ":8409,"Ġ2014":8410,"ì¹ĺê³łëĬĶ":8411,"ĠìķłëĭĪëĬĶ":8412,"Ġì²¨ìĿ´ëĭ¤":8413,"ĠíĻĺê²½":8414,"ëĨĢëĵľ":8415,"Ġìľłì¾Įíķĺê²Į":8416,"ìĸµì§Ģë¡ľ":8417,"ìłľìŀĳë¹Ħ":8418,"ëĨ¨ëĦ¤":8419,"ë¬´ìĦľìļ´":8420,"Ġê²°ë¡łìĿĢ":8421,"ĠìĮ©":8422,"ĠìĬ¤íı¬ì¸ł":8423,".-":8424,"Dë¡ľ":8425,"²ł":8426,"ìµĿìĺ¤":8427,"ĠR":8428,"ìŀĥ":8429,"ìĹĲíļ¨":8430,"ìĦľë¡ľ":8431,"ìĸ´ìĸ´":8432,"ë§Įíķĺê³ł":8433,"ìĺ¬ë¦¬ë":8434,"ìĭľìĬ¤":8435,"ì£¼íĸī":8436,"ĠìŀĪìľ¼ëĤĺ":8437,"ĠìĹ°ìĥģ":8438,"ê·¸ëĭ¤ì§Ģ":8439,"Ġíķľë²ĪëįĶ":8440,"ìĨĮë¦¬ê°Ģ":8441,"Ġëª»ë³¸":8442,"ë¬´ì¡°ê±´":8443,"Ġê²ĥëĵ¤ìĿ´":8444,"Ġë§Įëĵ¤ìĪĺ":8445,"ĠëĵľëĿ¼ë§Īì¤ĳ":8446,"ë¦¬ë³´":8447,"ë¦¬ëĥĲ":8448,"ĠëĲĺëĬĶëį°":8449,"Ġì¡°ëĭĪëİģ":8450,"Ġìļ°ë¢°ë§¤":8451,"íĤ¥":8452,"Ġìŀ¬ë¯¸ìŀĪìĸ´":8453,"ëĤ¨ëħĢ":8454,"ì½ĶëĤľ":8455,"Ġì¶Ķë¦¬":8456,"ĠíĸĪìľ¼ëĤĺ":8457,"Ġë¶ĪìķĪ":8458,"Ġë©ĭìŀĪê³ł":8459,"ì¹ľêµ¬ëŀĳ":8460,"ĠëıĦëĳĳ":8461,"ĠíıīìĿĦ":8462,"ëª»íķĺê³ł":8463,"ĠìĿ´ê±°ë³´ëĭ¨":8464,"Ġìŀ¼ìŀĪëĬĶ":8465,"Ġìļ¸ìĹĪìĸ´ìļĶ":8466,"ĠìĹĲìĦľ":8467,"Ġê°Ģìŀ¥íķľ":8468,"ìĤ¬ë¯¸":8469,"Ġê³¼ëĮĢ":8470,"ëĤĺìĺ¤ëĦ¤":8471,"ëŀľëĵľ":8472,"Ġíı¬ìĿ¸íĬ¸":8473,"ĠìķĦë¬´íĬ¼":8474,"ë§ŀëĬĶ":8475,"Ġëĭ´ëĭ´":8476,"ì°½ìłķ":8477,"ìºĲë¦¬":8478,"Ġì§Īë¦¬":8479,"Ġíĺķìłľ":8480,"Ġíĸīë³µíķĺê²Į":8481,"ìĿ¼ë³¸ìĺģíĻĶ":8482,"Ġëĭµëĭµíķĺëĭ¤":8483,"Ġê¸Ģê³ł":8484,"ĠìĺģíĻĶëĿ¼ì§Ģë§Į":8485,"ĠìĸĳìķĦì¹ĺ":8486,"ĠìĭľëĮĢìĿĺ":8487,"Ġë¶ĪìĮįíķľ":8488,"Ġëĭ¨ìĪľíŀĪ":8489,"ìºħ":8490,"Ġë©ĶìĦ¸ì§Ģ":8491,"Ġì°¸ìĭłíķľ":8492,"ĠëĤĺë¨¸ì§ĢëĬĶ":8493,"Ġê³µíı¬ë¥¼":8494,"ĠíıĲì§Ģ":8495,"ĠìıŁìķĦ":8496,"ìĥĪë¡Ŀ":8497,"Ġìĸ´ëĳĲìļ´":8498,"ì¨Įëĵł":8499,"ĠìĽ°ë©ĶìĿ´ëĵľ":8500,"ĠìŀĲëıĻì°¨":8501,"ãĤ":8502,"ķħ":8503,"ìĹĲëĭ¤":8504,"ìĹĲëĭ¤ê°Ģ":8505,"ê¸°ìĪł":8506,"ĠìĿ´ë»":8507,"...!":8508,"ë©Ģ":8509,"ìĿ¸ìĺģíĻĶ":8510,"ìĿ¸ê±¸":8511,"ìľ¼ëŁ¬":8512,"ëĮĢê³ł":8513,"Ġì¢ĭìľ¼ëĤĺ":8514,"ì£¼ìĦ±ì¹ĺ":8515,"Ġíķľíİ¸ìĿĺ":8516,"ëĵľëĦ¤ìļĶ":8517,"ëĵľìĽĮ":8518,"Ġìĭľì¼ľ":8519,"ĠìĬ¤íħĿ":8520,"ĠìµľìĨĮíķľ":8521,"Ġëª¨ìķĦ":8522,"Ġë§ĲìĿĢ":8523,"ëħĦê°Ħ":8524,"Ġê²ĥë§Į":8525,"Ġë³¼ê¹Į":8526,"Ġë¶ĢíĻľ":8527,"ì¢ĭìķĺìĸ´ìļĶ":8528,"ĠëĵľëĿ¼ë§ĪìĹĲ":8529,"ĠëģĿëĤĺìĦľ":8530,"ëıĻìĿ´":8531,"ĠëŃĲìŀĦ":8532,"Ġìŀ¬ë¯¸ìŀĪìĹĪìĿĮ":8533,"Ġìĭ¶ëĭ¤ë©´":8534,"Ġê³łë¬¸":8535,"ëŁ½ì§Ģ":8536,"ê´ĢìĿĦ":8537,"Ġìĭľê°ĦëķĮ":8538,"ĠëķĮëĬĶ":8539,"ĠìĺĪì¸¡":8540,"ì°¨íĶ¼":8541,"íĭ°ê°Ģ":8542,"ĠíĸĪìĬµëĭĪëĭ¤":8543,"Ġë©ĭì§Ģ":8544,"Ġê´Ģìĭ¬ìĿ´":8545,"ìłķëıĦìĿĺ":8546,"ĠëĶ°ìľĦ":8547,"ë§¤ìĿ´ìħĺ":8548,"Ġë¡ľë§Ŀ":8549,"ìŀĺë§Įëĵł":8550,"ëĭĪë²Ħ":8551,"Ġëĭ¨ìĸ´":8552,"ì°¸ëĤĺ":8553,"ë°°ëĬĶ":8554,"ĠëĤ¨ìŀĲì£¼ìĿ¸ê³µ":8555,"ĠìĿ¸ê°ĦìĿĢ":8556,"Ġìĭ¤ë§ĿìĿ´":8557,"ĠíĤ¹":8558,"Ġëª¨ìĬµìĹĲ":8559,"ĠìºĲë¦ŃíĦ°ëĵ¤":8560,"ĠìºĲë¦ŃíĦ°ë¥¼":8561,"ãĦ·ãĦ·ãĦ·ãĦ·":8562,"ĠìĨĲê°ĢëĿ½":8563,"ĠëĴ¤ì£½ë°ķì£½":8564,"Ġìŀĳê°ĢìĿĺ":8565,"ëħ¸ìŀ¼ëħ¸ìŀ¼":8566,"ëĪĪìĿ´":8567,"ĠìłĪë§Ŀ":8568,"íĮ¬ìĿ´":8569,"íĻķìĭ¤íŀĪ":8570,"ĠíĴĢìĸ´ëĤ¸":8571,"ëĤĺìĻĶìľ¼ë©´":8572,"Ġíķµëħ¸ìŀ¼":8573,"íķĻëħĦëķĮ":8574,"ĠìĻ¸ê³ĦìĿ¸":8575,"ìĬ¤íĭ°ë¸Ĳ":8576,"ê´ľíŀĪ":8577,"ìłĬìĿĢ":8578,">>":8579,"´ëĵľ":8580,"Ġx":8581,"ìĿ´ìłķ":8582,"ê³½":8583,"ê³łìĭ¶ëĭ¤":8584,"íĻĶëĬĶ":8585,"ĠìŀĪëĥĲ":8586,"ëıĦìłĢíŀĪ":8587,"íķľê°Ģ":8588,"ê¸°ìŀĲ":8589,"ê¸°ë³´ëĭ¨":8590,"ĠìĿ´ë§Įíķľ":8591,"ĠìĿ´ìģ¨":8592,"ìĸ´ëĤĺìĦľ":8593,"ë§Įëĵ¬":8594,"Ġìłĸ":8595,"ëĵ¤ëŁ¬":8596,"ìķĦëĵ¤ìĿ´":8597,"Ġë³´ìķĦëıĦ":8598,"Ġê·¸ëĵ¤ìĿ´":8599,"Ġê·¸ëıĻìķĪ":8600,"ìĬ¤ëłĪ":8601,"ìĬ¤íĦ´":8602,"ë§Ĳíķł":8603,"ì¤įëĭĪëĭ¤":8604,"Ġëĭ¤ë³´ê³ł":8605,"ìĪĺìłķ":8606,"ìŀ¥ìĿĢ":8607,"ĠìĬµ":8608,"Ġì§ĢíĤ¤":8609,"ĠëĤ´ëıĪ":8610,"Ġê¸°íĥĢ":8611,"ĠìķĬìĬµëĭĪëĭ¤":8612,"Ġê±·":8613,"ìĨĮìĭľ":8614,"Ġìµľê³łëĿ¼ê³ł":8615,"Ġê°ľëĤĺ":8616,"ĠìŀĲë³¸":8617,"Ġë³¸ê²ĥ":8618,"ìľłë¨¸":8619,"ìµľê°ķ":8620,"Ġê³µì§ľë¡ľ":8621,"ĠëģĿìĿĦ":8622,"Ġì¡°ì¹´":8623,"Ġíķ´ìķ¼ì§Ģ":8624,"ë¬¼ë¡ľ":8625,"Ġì¹ł":8626,"ëª¨ë¥¼":8627,"ĠìĽĥê¸°ëĬĶ":8628,"Ġìĥģì§ķ":8629,"íĶĦëłĪ":8630,"ĠíķłìķĦë²Ħì§Ģ":8631,"ì½Ķëĵľ":8632,"Ġê¸°ëĮĢìķĪíķĺê³ł":8633,"ì²ľìĽĲ":8634,"ĠìĹ°ì¶ľëł¥ìĿ´":8635,"ĠíĸĪìĿĦê¹Į":8636,"ìĤ´ëķĮ":8637,"Ġë³´ìĹ¬ì¤Ħ":8638,"íĽ¨":8639,"íķĺê¸°ê°Ģ":8640,"Ġê¼Ńë³´ìĦ¸ìļĶ":8641,"ìĺĢëĭ¤ë©´":8642,"Ġêµ¬ìĦ±ëıĦ":8643,"ê°ĲëıĻìłģ":8644,"ê°ĲëıĻê³¼":8645,"Ġê±¸ê¹Į":8646,"ĠìĨįìķĺëĭ¤":8647,"Ġìľłì¹ĺíķ´ìĦľ":8648,"Ġãħİãħİãħİãħİ":8649,"Ġë°ĺìłĦìĹĲ":8650,"ĠìĿ¸ê°Ħëĵ¤":8651,"ìŀ¥ë©´ìĹĲìĦľ":8652,"ì£½ìĿĮ":8653,"ìĹŃìĭľëĤĺ":8654,"ìķĦìĿ´ëıĮ":8655,"ë¸Įë¦¬":8656,"Ġë²Ħëł¤":8657,"ë»ĶíĸĪëĭ¤":8658,"Ġê°Ģì¡±ìĺģíĻĶ":8659,"Ġëª¨ë¥´ê²łëĦ¤":8660,"ëıĮëł¤":8661,"ĠìķŀìĹĲ":8662,"ê²ģëĤĺ":8663,"ëĨĪìĿ´":8664,"ĠíĮĲíĥĢ":8665,"ìłĲëĮĢê°Ģ":8666,"Ġê¸¸ìĿĦ":8667,"ĠìĿ´ëĶ´ê±¸":8668,"íķĦë¦Ħ":8669,"íķĺìŀĲë©´":8670,"ĠëĤ®ìĿĢì§Ģ":8671,"Ġë§ĮëĵľëĦ¤":8672,"Ġìŀĺë§Įëĵ¤ìĹĪëĭ¤":8673,"ë²Īë´Ĳ":8674,"ĠíĭĢë¦¼":8675,"Ġì°½íĶ¼":8676,"ĠìķĪë§ŀëĬĶ":8677,"ĠìĽĮëĤĻ":8678,"ë§¤ëł¥ìłģìĿ¸":8679,"Ġìī¬ìļ´":8680,"Ġíĥľìĸ´ëĤĺìĦľ":8681,"ìĻĦë²½íķľ":8682,"ëĤ´ìĥĿìĹĲ":8683,"ìķĪëĲľëĭ¤":8684,"ĠìłĲìĪĺì¤Ģê²ĥëĵ¤":8685,"Ġê°Ŀê´Ģ":8686,"²ķ":8687,"ıëĭ¤":8688,"ìĿ´ë¯¼":8689,"ìĿ´ìĹĪëįĺ":8690,"ìĹ£":8691,"ê°Ģë©°":8692,"ĠìĿ´ëĿ¼ëĬĶ":8693,"ìĸ´ë¨¸ëĭĪ":8694,"...(":8695,"Ġê°ĵ":8696,"êµ¬ë¦¬":8697,"Ġë³´ëĿ¼":8698,"Ġì¢ĭì§Ģ":8699,"ì£¼ëĬĶëį°":8700,"ì§ĦìĿĺ":8701,"Ġíķľëĭ¤ê³ł":8702,"ìķĺëĤĺ":8703,"íķłë§ĲìĿ´":8704,"Ġëį®":8705,"êµ¬ëĬĶ":8706,"Ġë¬´ìĭĿ":8707,"ë¶ĦëıĦ":8708,"íİ¸ê¹Įì§Ģ":8709,"íĬ¸ë¦Ń":8710,"Ġìŀ¥êµŃìĺģ":8711,"Ġë²ħ":8712,"Ġë¶Ģìłķ":8713,"ĠìķĪë´ĲëıĦ":8714,"ëªħìĿĢ":8715,"ĠëģĿëĤł":8716,"ĠëĤ´ìļ©ìłĦê°ľ":8717,"ĠëĲĺëıĮìķĦ":8718,"ëıĻê±´":8719,"ì¡°íıŃ":8720,"ëª¨ìĸĳ":8721,"Ġëĭ¤ìĭľê¸Ī":8722,"ëŃī":8723,"Ġëĵ¤ê²Į":8724,"Ġë§Īì§Ģë§īìĿ´":8725,"Ġë³´ìĹ¬ì¤¬":8726,"Ġë°°ê¼½":8727,"íķĺëĤĺìļĶ":8728,"ìĽłëĬĶëį°":8729,"ãħľãħľãħľ":8730,"Ġë§ŀëĤĺ":8731,"ĠëĪĦêµ¬ë":8732,"ìĤ¬ëŀĳíķĺëĬĶ":8733,"ĠìķĦëĭĪëĿ¼ë©´":8734,"íĿ¬ìĦł":8735,"íĻ©ëĭ¹":8736,"Ġë¨¸ë¦¿":8737,"ìĿ´ëĿ¼ëĬĶê²Į":8738,"ì²ĺìĿĮìĹĲ":8739,"Ġê°Ģì¡±ìĿ´":8740,"Ġê³¤":8741,"ĠìŀłìĿĦ":8742,"ĠëĮĢìĤ¬ëıĦ":8743,"ëįķìĹĲ":8744,"Ġìłľëª©ìĿĦ":8745,"ĠëĦ¤íĭ°ì¦Į":8746,"Ġê¸ĢìĿĦ":8747,"ì°¬ìļ±":8748,"Ġê·ĢìĹ¬ìĽĮìļĶ":8749,"Ġì¶©ë¶Ħíķľ":8750,"Ġth":8751,"ĠìĬ¤íĨłë¦¬ë¡ľ":8752,"Ġì»¤ë²Ħ":8753,"ìłłìŀ¥":8754,"ëĴ¤ë¡ľ":8755,"ĠìĿ´ë¯¸ì§Ģ":8756,"ĠìłĪìłľ":8757,"Ġì§ģìĹħ":8758,"ĠíĹĪë¬´íķľ":8759,"¬ë¦°ëĭ¤":8760,"Ġìĺ¤ê¸Ģê±°ë¦¬ëĬĶ":8761,"ì¹ľêµ¬ê°Ģ":8762,"Ġë®¤ì§ģ":8763,"Ġê·¸ëł¤ëĤ¸":8764,"Ġê±°ì§Ģê°ĻìĿĢ":8765,"Ġëĭ¤ìļ´ë°ĽìķĦìĦľ":8766,"ĠìĿ´íķĺëıĦ":8767,"ìĤ´ëĭ¤ìĤ´ëĭ¤":8768,"ĠíĽĦìĨįìŀĳ":8769,"Ġê°Ĳëªħê¹Ĭê²Į":8770,"ëĭ¨ìĪľíķľ":8771,"ĠëĽ°ìĸ´ëĦĺëĬĶ":8772,"ĠìłĦë°ĺìłģìľ¼ë¡ľ":8773,"ëłĪë©ĺíĥĢìĿ¸":8774,"ĠìĦ¤ëĵĿëł¥":8775,"Ġì²©ë³´":8776,".!":8777,"bc":8778,"įĶ":8779,"ìĹ¬ë¦Ħ":8780,"ì§ĢìĦŃ":8781,"ê²»":8782,"ìĿĢëĵ¯":8783,"ìĿĢê·¼":8784,"ìĿĦì§Ģ":8785,"ĠìĿ´ì¤Ģ":8786,"ĠìĿ´ìĨĮë£¡":8787,"ìķĦìĿĺ":8788,"ìķĦëĭ´":8789,"ĠìķĦëĵ¤ìĿ´":8790,"ëŁ¬ë¦¬":8791,"ëĮĢìŀĳ":8792,"ìļ°ë¦¬ëĬĶ":8793,"ìŀ¥ìĹĲ":8794,"Ġìłķìĥģ":8795,"ê³¼ìĹ°":8796,"Ġìĺ®":8797,"íĥĵ":8798,"ĠíķľìĪľê°Ħ":8799,"ìŀ¬ë¡ľ":8800,"Ġì§ĦìĪĺ":8801,"Ġë´¤ëĤĺ":8802,"ìĹ¬ìĦ±":8803,"ĠìĪĺëĬĶ":8804,"íĦ°ë¦¬":8805,"ì¤ĳíķĻêµĲ":8806,"ëŁ¬ìĬ¤":8807,"ëķĮëıĦ":8808,"Ġë§Īëĭ¤":8809,"ìĭ¤ëł¥":8810,"Ġëª»ë¯¸":8811,"ëĶĶì¦ĪëĭĪ":8812,"íĬ¸ëĿ¼":8813,"ĠìĿ´ëŁ°ìĺģíĻĶëĬĶ":8814,"ĠìĨĮíĨµ":8815,"ëįĶìļ±":8816,"ìŀ¬ë°ĮìĹĪëĭ¤":8817,"ĠìĽĥìĹĪëĭ¤":8818,"Ġë°ĶëĿ¼ëĬĶ":8819,"Ġìĥģíĥľ":8820,"ì§Īì§Īëģ":8821,"ĠëķĮê°Ģ":8822,"ĠëĦĺìĸ´ìĦľ":8823,"ľì°¬":8824,"ëł¸ëĦ¤":8825,"Ġë¡ľëĵľ":8826,"ãħĭãħĭãħĭãħĭãħĭãħĭãħĭãħĭãħĭ":8827,"Ġìĸ´ëĸł":8828,"ëª©ìĨĮë¦¬":8829,"Ġê¹Ģì¹ĺ":8830,"ìĽĥê¸°ê³ł":8831,"Ġãħłãħłãħłãħł":8832,"Ġì¤ĦìĿ´ìķ¼":8833,"ìķĪë´¤":8834,"ĠìķĦìĿ´ëĶĶìĸ´":8835,"ìĬ¤ëŁ¬ìĽłëĭ¤":8836,"ìĵ°ëłĪê¸°ìĵ°ëłĪê¸°":8837,"íĿ¬ë§Ŀ":8838,"ìķĦìĿ´ëĵ¤":8839,"ë¿ĲìĿ´ëĭ¤":8840,"Ġì¤Ģë¹Ħ":8841,"ìĬ¹ìļ°":8842,"ĠíĳľíĺĦìĿ´":8843,"Ġëĵ±ë¡Ŀ":8844,"íĹĪìĪł":8845,"Ġëĸ¨ìĸ´ëľ¨":8846,"ĠìķĦìī¬ìĽĮìļĶ":8847,"ĠìŀĬìĿĦìĪĺ":8848,"ĠìĨĮìŀ¬ìĿĺ":8849,"Ġì¡°ê¸Īë§Į":8850,"ĠìĤ´ìķĦìŀĪëĬĶ":8851,"íļ¨ì£¼":8852,"ĠìĿ¸ìĥģìłģ":8853,"Ġìĭľì²ŃìŀĲ":8854,"Ġê¹¨ìķĮ":8855,"ì¤ĳê°Ħì¤ĳê°Ħ":8856,"Ġíĺ¼ëŀĢ":8857,"ìĭľíĤ¤ê³ł":8858,"ìĭľíĤ¤ì§Ģ":8859,"ãħĩãħĩãħĩãħĩ":8860,"Ġì£ĦìĨ¡":8861,"Ġìĺģìĥģë¯¸ê°Ģ":8862,"ê·¸ëŀ¬":8863,"Ġìĸ¸ëĭĪ":8864,"ìĭľë¦¬ì¦Īì¤ĳ":8865,"Ġê·¸ë¦¬ìĽĮ":8866,"ĠìĺĽëĤłìĹĲ":8867,"íŀĺëĵł":8868,"ĠìĬ¹ë¦¬":8869,"ãĦ¹ãħĩ":8870,"ì°¾ìķĦ":8871,"âĺħâĺĨ":8872,"Ġì°¬ìĸĳ":8873,"Ġíĺķíİ¸ìĹĨëĬĶ":8874,"Īëł¨":8875,"Ġëª½íĻĺ":8876,"ìĺµëĭĪëĭ¤":8877,"Ġìĸ´ëķł":8878,"¤ë²Ħ":8879,"Ġu":8880,"Ġ;;;":8881,"ģĿ":8882,"..!!":8883,"ì§ĢìĽĲ":8884,"ê°Ģë©´ìĦľ":8885,"Ġìķ¨":8886,"ëĤĺëĿ¼ëĬĶ":8887,"ĠìĿ´ìĦ±":8888,"ĠìĿ´ë³Ħ":8889,"Ġë§ģ":8890,"ìĸ´ì°Į":8891,"ìķĦëł¨":8892,"ìĿ¸ìĥģ":8893,"ìĿ¸ëĶĶ":8894,"ĠìķĦìļ°":8895,"Ġë³´êµ¬":8896,"ë³´ëįĺ":8897,"ìĬ¤ëŀĢ":8898,"ëŀĮìĿ´":8899,"ë§ĪëĬĶ":8900,"ĠëĤĺê³ł":8901,"ĠíķĺëıĦ":8902,"Ġíķĺê¸°ìĹĶ":8903,"ì£¼ìľ¨":8904,"Ġê²ł":8905,"ĠìŀĪê¸´":8906,"ĠìŀĪê²łì§Ģë§Į":8907,"ê°ĦëıĦ":8908,"Ġê¸°ê´´":8909,"íĮ¡":8910,"Ġë¬´ê±°ìļ´":8911,"ĠìķĪì¢ĭ":8912,"ĠìķĪëĤĺìĺ´":8913,"Ġëª»íķĺê²łëĭ¤":8914,"Ġë³¸ì§Ī":8915,"ìłĢê²ĥ":8916,"ìĽĲìĹĲ":8917,"ĠìĿ¼ìĿĦ":8918,"ĠìĤ¬íĪ¬ë¦¬":8919,"Ġë°°ìļ°ëĵ¤ìĿĦ":8920,"Ġíķ´ë¦¬íı¬íĦ°":8921,"Ġê°ĲìĿ´":8922,"Ġê³łìĸ´":8923,"íķĺì§Ģë§Ĳê³ł":8924,"ĠìĹŃê²¹ëĭ¤":8925,"ë¯¼ìĿĺ":8926,"Ġíı°":8927,"ëĬĲìĻĢë¥´":8928,"ĠëĶ°ë¶Ħ":8929,"ĠëĤľìŀ¡":8930,"ë°©ìĭĿ":8931,"ĠìºĲë¦Ń":8932,"ëĪĪë":8933,"Ġë³Ħê±°":8934,"ê°ĲëıĻìĿĦ":8935,"Ġë³¼ë§Įíķ©ëĭĪëĭ¤":8936,"ìĤ¬ëĵľ":8937,"ĠìłĦê°ľìĹĲ":8938,"ì±Ļ":8939,"ëĭ¤ìļ´ë°Ľ":8940,"ìŀ¥ë©´ëıĦ":8941,"ĠíĶ¼íĦ°":8942,"ĠíĳľíĺĦíķł":8943,"Ġëĭ´ë°±":8944,"Ġìĭ¸ìļ°":8945,"Ġ--":8946,"íķłìĪĺìŀĪëĬĶ":8947,"Ġë²łìĿ´":8948,"ĠìķŀìĦľ":8949,"oooo":8950,"Ġìŀ¡ìķĦ":8951,"ìħ¨ìľ¼ë©´":8952,"íķĺìĭľê¸¸":8953,"ĠìłĦìŁģìĿĺ":8954,"ĠìłĦìŁģìĺģíĻĶ":8955,"íı¬ë¨¸":8956,"ĠíħĮìĿ´":8957,"ĠìĹŃìĤ¬ìĥģ":8958,"ëĴ¤ìĹĲ":8959,"ëª¨ë¥´ê²Į":8960,"ëª¨ë¥´ê²łëĭ¤":8961,"Ġë²Ĺìĸ´ëĤĺ":8962,"ĠìķĮëł¤ì£¼ëĬĶ":8963,"ìĦ¼ìĬ¤":8964,"ìĹ¬ê¸°ìĦľ":8965,"Ġìĺ¤ê·¸ëĿ¼ëĵľëĬĶ":8966,"ĠìĤ°ë§Įíķĺê³ł":8967,"ĠíķĦìļĶíķľê°Ģ":8968,"íİĻíĬ¸":8969,"ì¼ĵëª¬":8970,"Ġìļ°ëł¤ë¨¹":8971,"ë©įì²Ń":8972,"Ġì¹Ńì°¬":8973,"ĠìĦ¬ëľ©":8974,"Ġë§Īì°¬ê°Ģì§Ģ":8975,"Good":8976,"bad":8977,"Ļíķ©":8978,"ê³łíķľ":8979,"ãħĲ":8980,"Ġìķ¡":8981,"ĠìĺģíĻĶëŀĳ":8982,"ë¦¬ìĸ¸":8983,"ëĭĪìĬ¤":8984,"Ġì§¬ë½ķ":8985,"ë©´ìĿĦ":8986,"ìĭľëıĦ":8987,"Ġëĭ¿":8988,"ìŀĲìĭĿ":8989,"ìĽį":8990,"ĠëĦĲ":8991,"ë§ĪìłĢëıĦ":8992,"ĠìĹĨëįĺ":8993,"ĠëĤĺìĹ´":8994,"ìĺ¤ê³ł":8995,"Ġìĸ´ìłķì©¡":8996,"ì°Ĳ":8997,"Ġíķľê±°":8998,"Ġì§Ħíķľ":8999,"íķĺëĬĶê²ĥëıĦ":9000,"ê°ľìĿĺ":9001,"ê°Ĳìĥģ":9002,"Ġë§Īìķ½":9003,"Ġìµľê³łëĦ¤ìļĶ":9004,"Ġê°ľëĺ¥":9005,"ë³¸ìĥī":9006,"Ġë³´ê³łìŀĪëĬĶëį°":9007,"ìłĢëĤĺ":9008,"ë²ĪìĿ´ëĤĺ":9009,"ĠìĤ¬ìĥģ":9010,"ëĭ¤ëĬĶê±´":9011,"ëıĻìļ±":9012,"Ġìļ°ëĬĶ":9013,"ĠëŃĲëĿ¼ê³ł":9014,"Ġê°Ĳëıħê³¼":9015,"Ġê³łëıħ":9016,"Ġê±°ê¸°ëĭ¤":9017,"Ġê±°ëĵŃ":9018,"ĠìĥģëĮĢ":9019,"Ġìĵ°ëłĪê¸°ë¥¼":9020,"íıīìłĲì¡°ìłĪ":9021,"Ġìĭłê³ł":9022,"íļĮë¶ĢíĦ°":9023,"ë´Ĳìķ¼ì§Ģ":9024,"ìĿ´ëŁ°ìĺģíĻĶê°Ģ":9025,"ĠìĿĺíķ´":9026,"ìĺĪê³ł":9027,"ìł¸ìķ¼":9028,"Ġê¸°ëĮĢìĹĨìĿ´":9029,"íĮĲìĿĦ":9030,"ĠíĸĪìĸ´ìļĶ":9031,"ĠíĸĪëĬĶì§Ģ":9032,"Ġëĵ¤ìĸ´ìĦľ":9033,"Ġë©ĭì§Ĳ":9034,"ĠìĽĲíķĺëĬĶ":9035,"íĺ¸ëŁ¬":9036,"ĠëıĦìĻĢ":9037,"ĠëĤľë¦¬":9038,"Ġëĭ¹ìŀ¥":9039,"ĠìĹ¬ìŀĲë¥¼":9040,"Ġë§īíĮĲ":9041,"ìĹĩìĸ´ìļĶ":9042,"ìĪľìĿ´":9043,"ĠëĨĴì§Ģ":9044,"ì¼ĢìĿ´":9045,"ì¡Įìľ¼ë©´":9046,"ë¶Īíĺ¸ê°Ģ":9047,"Ġì½Ķë¯¸ëĶĶìĺģíĻĶ":9048,"ĠëĿ¼ìĬ¤íĬ¸":9049,"ĠëĬĲê»´ì§Ģ":9050,"ë§Įíģ¼ìĿ´ëĤĺ":9051,"ĠíĮĮê²©":9052,"ĠìĽĲìŀĳìĹĲ":9053,"ê¿Ģ":9054,"ĠìłĪëĮĢë¡ľ":9055,"ĠêµŃìĸ´":9056,"íĶĮë¦°":9057,"ì¿¨":9058,"Ġíļį":9059,"ê²ĥê°ĻìĿĮ":9060,"íķĺíķĺíķĺíķĺ":9061,"Ġë¸Įë£¨ìĬ¤":9062,"Ġë§Īëĥ¥":9063,"Ġíı¬ìĬ¤íĦ°ê°Ģ":9064,"ë¶ģíķľ":9065,"ĠíĿĳë°±":9066,"ĠíĤ¬ë§ģíĥĢìŀĦìļ©ìľ¼ë¡ľ":9067,"ë²Įìį¨":9068,"ìĨĮìĦ¤ìĿĦ":9069,"ìĺ¤ê¸Ģê±°":9070,"Ġë©Ķìĭľì§Ģ":9071,"****":9072,"ìķĦê¹Įìļ´ìĺģíĻĶ":9073,"Ġë°¤ìĹĲ":9074,"ìŀ¥ë¥´ê°Ģ":9075,"Ġê²©íĪ¬":9076,"Ġê¹ĶëģĶíķľ":9077,"very":9078,"Ġê±°ê¸°ìĦľ":9079,"ĠíĿīëĤ´":9080,"ĠìĬ¤ë¦´ëŁ¬ë¬¼":9081,"ë®¤ì§Ģì»¬":9082,"ìľłì¾Įíķĺê³ł":9083,"ĠìĿ´ëģĮìĸ´":9084,"ĠëĤ©ëĵĿ":9085,"ĠëĳĶ":9086,"ëĵ±ìŀ¥ìĿ¸ë¬¼":9087,"ê°ĲìĤ¬íķ©ëĭĪëĭ¤":9088,"BC":9089,"íĳ¼":9090,"Ġh":9091,"Ġ??":9092,"ĠâĢ":9093,"ê³łëĵ±íķĻêµĲ":9094,"Ġêº":9095,"íķĺê¸¸ëŀĺ":9096,"ê°Ģìķ¼":9097,"ë§Įíķ´ìĦł":9098,"Ġê°±":9099,"ìĿ¸ì§ĢëĬĶ":9100,"ìĬ¤ìĹĲìĦľ":9101,"ìľ¼ëł¤":9102,"!!âĻ¥":9103,"ëĮĢê¸°":9104,"ê¹Įë´Ĳ":9105,"ìĹĨì§Ģë§Į":9106,"Ġì¢ĭëįĶëĿ¼":9107,"ì§Ħìłķ":9108,"ĠìĥĪë²½ìĹĲ":9109,"ìĨĶì§ģ":9110,"ëĤ´ì§Ģ":9111,"íĥ±":9112,"íŀĲë§ģ":9113,"ìĹ°ìĺĪ":9114,"ê³µë¶Ģ":9115,"ì¹ĺëĭ¤":9116,"Ġëª¨ìĸĳ":9117,"ĠìķĬìķĦìļĶ":9118,"ëłĪìķĮ":9119,"ĠìĥĿê°ģìĿĢ":9120,"ĠìĥĿê°ģë§Į":9121,"ìŀħëĭĪê¹Į":9122,"Ġëª»íķ´ìĦľ":9123,"ĠìĹ¬ì¹ľ":9124,"ë¹ĦìĹĲ":9125,"ĠëĤ¨ìĿĺ":9126,"ĠëĤ¨ëĬĶê²Į":9127,"ìłĢëĥ¥":9128,"ĠìĨĮê°ľ":9129,"ĠìĨĮëħĦ":9130,"ëįĶêµ°":9131,"Ġë¯¸íķĻ":9132,"Ġë¯¸ëħĢ":9133,"ê³Ħë¥¼":9134,"íĭĪ":9135,"Ġê³µë£¡":9136,"ãħľãħł":9137,"ĠëĲĺë©´":9138,"Ġë°ĺìĿĳ":9139,"ìĹŃìĿĦ":9140,"ê²½ìĿĦ":9141,"ìĹ°ê¸°ìĹĲ":9142,"ĠìķĦëĭĪìĹĪëĭ¤":9143,"ê·¹ìĿĺ":9144,"Ġë§Īì§Ģë§īíļĮ":9145,"ëł¸ëįĺ":9146,"ĠëıĪëĤ´ê³ł":9147,"ê¹Ģë¯¼":9148,"íķĺê¸°ëĬĶ":9149,"ĠìĿĮìĭĿ":9150,"Ġë§Ŀíķł":9151,"ĠìļĶìĥĪ":9152,"íıīìĿĦ":9153,"ëĬĶê±°ëĥĲ":9154,"íĨµìĪĺ":9155,"Ġì°įëĬĶ":9156,"Ġìĭ¤ë§ĿìĿ´ëĭ¤":9157,"ĠìºĲë¦ŃíĦ°ëıĦ":9158,"ĠìºĲë¦ŃíĦ°ëĵ¤ìĿ´":9159,"ĠëĨĢëŀĢ":9160,"ëŁ¬ë©´":9161,"ë¸ĮëĿ¼":9162,"íĸ¥ìĿ´":9163,"ĠëĤĺìĻĶëįĺ":9164,"ĠëĤĺìĻĢìķ¼":9165,"Ġê¸´ìŀ¥ê°ĲìĿĦ":9166,"ĠìłķìĭłìĿ´":9167,"ĠëĮĢìĤ¬ìĻĢ":9168,"ìĭ¶ìĿĢëį°":9169,"ëĤ¨ìŀĲìĿĺ":9170,"ëĿ¼ìĿ´ì¦Ī":9171,"ĠìļĶì¦ĺìĿĢ":9172,"Ġê°ķì¶Ķíķ©ëĭĪëĭ¤":9173,"Ġì¼Ģë¹Ī":9174,"íĥĪë¦¬ìķĦ":9175,"Ġì¶©ê²©ìłģìĿ¸":9176,"Ġë¯¼ì¡±":9177,"êµ³ìĿ´":9178,"ĠìĹ¬ì£¼ìĿ¸ê³µìĿ´":9179,"Ġëĵ£ê¸°":9180,"Ġìĸ´ë¥¸ìĿ´":9181,"ĠíħĮëŁ¬":9182,"Ġíķľìĭ¬íķĺëĭ¤":9183,"ë¹¼ê³¤":9184,"ĠìĽĥê²¨ìĦľ":9185,"ĠëĪĦêµ°ê°Ģ":9186,"ë²Īë³´ê³ł":9187,"ìĿ´ëŀĺìĦľ":9188,"ìĿ´íĽĦë¡ľ":9189,"!~":9190,"ìª":9191,"ŀĢ":9192,"ìĿ´íķľ":9193,"ìĿ´ìĻĢ":9194,"ãħĮ":9195,"íķľíİ¸":9196,"ĠìĺģíĻĶê°Ļëĭ¤":9197,"ìĸ´ì©Ķ":9198,"Ġë³´ìĿ´ê³ł":9199,"Ġê·¸ê°Ģ":9200,"ìĭľë¥¼":9201,"ë³´ëŁ¬":9202,"ĠìĹĨìĹĪ":9203,"ĠëĤĺë©´":9204,"ĠíķĺìĦ¸ìļĶ":9205,"ìĪĺëĭĺ":9206,"ìĥģìļ°":9207,"ĠìŀĪìĹĪìĿĮ":9208,"íķĺê³łëıĦ":9209,"¬ëŀĲ":9210,"ëĤ´ìĦľ":9211,"ìĹ°ìĿĺ":9212,"Ġë´¤ê³ł":9213,"ìĹ¬ëıĦ":9214,"ìĿ¼ì§Ģ":9215,"ìĿ¼ëŁ¬":9216,"Ġëª¨ë¥¸":9217,"ĠìłĦíĻĶ":9218,"ë¶Ħì§ľë¦¬":9219,"ê°Ĳíķľ":9220,"ê·Ħ":9221,"ĠìłľìĿ´ìĬ¨":9222,"ëįĶìĿ´ìĥģ":9223,"Ġë²¤":9224,"Ġë¶Ģë¶Ģ":9225,"ë²ĪìĹĲ":9226,"Ġíķĳ":9227,"ĠíķŃ":9228,"Ġìŀ¬ë¯¸ìŀĪìĹĪëĬĶëį°":9229,"ìŀ¬ë°ĮìĹĪëĬĶëį°":9230,"ĠìĽĥìĿĦ":9231,"ëĤ¨ìĿĦ":9232,"Ġëĭ¤ìĭľë³´ê³ł":9233,"ì²ŃìĨĮëħĦ":9234,"ĠíķĺëĤĺëĬĶ":9235,"ĠëĤĺìĺ¤ëĦ¤ìļĶ":9236,"Ġìķ¡ìħĺìĶ¬":9237,"Ġì½ĶìĬ¤":9238,"êµĲìľ¡":9239,"ĠìĿ´íķ´ëıĦ":9240,"Ġë¶Īê°Ģ":9241,"Ġì²ĺìĿĮìĿ´ëĦ¤":9242,"Ġì²ĺìĿĮë³¸ëĭ¤":9243,"Ġê·¹íĺĲ":9244,"ìłķëıĦëĬĶ":9245,"íĤ¤ëĵľ":9246,"ë¥ĺìĺģíĻĶ":9247,"ĠíıīíĻĶ":9248,"ìĿ´ê±°ëĤĺ":9249,"Ġê·¸ëŁ°ê±°":9250,"ìķĮìķĦ":9251,"Ġê´ľì°®ëĦ¤ìļĶ":9252,"............":9253,"íķĺê¸°ê¹Įì§Ģ":9254,"Ġìĭ¬íĺķëŀĺ":9255,"ĠíĹĪëĤĺ":9256,"ĠíĺĦìĭ¤ê³¼":9257,"ĠíĺĦìĭ¤ìłģìĿ´":9258,"ê»ĺìĦľ":9259,"ĠíĶ¼ìķĦëħ¸":9260,"Ġìĸµì§ĢìĬ¤ëŁ½ê³ł":9261,"ìĬ¹íĹĮ":9262,"Ġìŀħìŀ¥ìĹĲìĦľ":9263,"Ġíĺ¸íĿ¡":9264,"ĠìĻĢìĦľ":9265,"Ġì¹ľêµ¬ëŀĳ":9266,"ì§Ģê¸ĪìĿĢ":9267,"Ġìĸ´ëĶĶìĹĲ":9268,"Ġì¡°ê¸ĪìĿĢ":9269,"Ġë³´ê²ĮëĲĺëĬĶ":9270,"ìĽĲìŀĳìĿ´":9271,"Ġìĸ´ìĦ¤íĶĦëĭ¤":9272,"Ġë¬¸ìłľë¥¼":9273,"ĠìŀĶìŀĶíķĺê²Į":9274,"Ġìĸĺê¸°ë¥¼":9275,"Ġê°ĲëıĻìłģìĿ´ëĦ¤ìļĶ":9276,"ìĨĲê°ĢëĿ½":9277,"ĠíĴįìŀĲ":9278,"Ġìĸ´ìļ¸ë¦¬ì§Ģ":9279,"ìķĶíĬ¼":9280,"Ġì½ĺ":9281,"Ġíĺ¹ìĭľëĤĺ":9282,"Ġìį°":9283,"Ġë¬ĺíķľ":9284,"Ġë²Ĺìĸ´":9285,"Ġmovie":9286,"ĠìĥĪìĤ¼":9287,"ì§ĪëķĮ":9288,"ì¤ĦìķĮìķĺëĭ¤":9289,"ë½Ģ":9290,"ĠìĹ¬ëŁ¬ë²Ī":9291,"íĿ¥ë¯¸ì§Ħì§Ħ":9292,"Ġìµľê·¼ìĹĲ":9293,"ëĤ«ëĭ¤":9294,"ĠëĿ¼ìĿ´ìĸ¸":9295,"Ġì¸¡":9296,"ìĺ¤ëŀ«ë§ĮìĹĲ":9297,"ëĿ¼ìĹĲëª½":9298,"25":9299,"il":9300,"vs":9301,"ľìĭľ":9302,"íķĺìĿĺ":9303,"ê¸°ë°ľ":9304,"ĠìĿ´ê²ĥìĿ´":9305,"ìĸ´ëłµ":9306,"ë¦¬ëĬĶëį°":9307,"ĠìłĪë":9308,"ìķĦëŀĺ":9309,"ĠìķĦíĮł":9310,"íķ´ê°ĢëĬĶ":9311,"Ġë³´ê²łëĭ¤":9312,"Ġë³´ìĦĿ":9313,"ìĥĮ":9314,"Ġê·¸ìĿ´ìĥģ":9315,"ë°ĳ":9316,"ëŀ´":9317,"ĠìĤĲ":9318,"ëĮĢì¤ĳ":9319,"Ġì§Ģê²½":9320,"ê·¸ëĭ¹ìĭľ":9321,"Ġíķľê°ľëıĦ":9322,"ìķĺìĸ´":9323,"ë¯¸ë¥¼":9324,"ë¯¸ëŀĺ":9325,"ê²ĥê°ĻìĿĢëį°":9326,"ìĿ¼ìĹĲ":9327,"Ġìŀĺë³´ê³ł":9328,"ĠëĬ¦ê²Į":9329,"ê°ĲíŀĪ":9330,"Ġê°Ļì§Ģë§Į":9331,"ĠëĤ¨ê¸°ëĬĶ":9332,"íĬ¸ìĻĢ":9333,"Ġìĺ¤íķ´":9334,"ĠìĬ¤íĨłë¦¬ìłĦê°ľ":9335,"ìķĪìĹĲìĦľ":9336,"ìĽĲìĹĲìĦľ":9337,"Ġì§Ģë£¨íķ¨ìĿĦ":9338,"ìĽĮì¦Ī":9339,"ĠëĲĺìĦľ":9340,"Ġíķ´ì¤Ģëĭ¤":9341,"íĤ´":9342,"Ġìĭ¶ìĹĪëĬĶëį°":9343,"Ġê°ĲìĦ±ìĿĦ":9344,"ĠìĤ¬ëŀĳìĬ¤ëŁ½ëĭ¤":9345,"Ġìŀ¬ë¯¸ìĹĨëĦ¤ìļĶ":9346,"Ġìĭľê°ĦëıĦ":9347,"ĠíķĺëĤĺê°Ģ":9348,"ìµľê³łìŀħëĭĪëĭ¤":9349,"Ġì£½ìĸ´":9350,"ì¦ĿìĿĦ":9351,"ìĹĲê²ĮëıĦ":9352,"ĠíĽĦíķĺê²Į":9353,"ĠìĦ±ìĿ¸ìĿ´":9354,"ĠíĸĪëĤĺ":9355,"Ġì§ľë¦¬":9356,"Ġíģ¬ë":9357,"ì½ķ":9358,"ĠìĿ´ìĥģíķ´":9359,"ìĸ¸ë§¨":9360,"ĠìłģìĿĢ":9361,"ĠìłģëĤĺëĿ¼":9362,"Ġê±´ì§Ī":9363,"ìŀ¬ë¯¸ìŀĪìĹĪìĸ´ìļĶ":9364,"ĠìķĦë¬´ëĤĺ":9365,"Ġìĸµìļ¸":9366,"ĠìĹ´ê´ĳ":9367,"ĠìºĲë¦ŃíĦ°ëĬĶ":9368,"ë§ŀê³ł":9369,"ĠìĺģíĻĶìĺĢëĬĶëį°":9370,"ĪëĶ°":9371,"ìĬ¬íį¼":9372,"ìķĦê¹Ŀê³ł":9373,"Ġëĵ¤ìĸ´ê°Ħ":9374,"ĠìķĪë³´ëĬĶê²Į":9375,"ĠëĤļìĿ´ì§Ģ":9376,"Ġë°°ê²½ìĿĮìķħ":9377,"ìĻĦìĦ±ëıĦ":9378,"ĠãħİãĦ·ãĦ·":9379,"ĠìĽĥìĿĮìĿĦ":9380,"Ġê²°êµŃìĿĢ":9381,"íŀĪë´¤":9382,"ë§ĪìĿĮìĿĦ":9383,"Ġëĭ¹ìĭľìĹĲ":9384,"ĠìłĪìłķ":9385,"Ġê°Ģì¹ĺëıĦ":9386,",,,,,,,,":9387,"ĠìĤ¼ë¥ĺìĺģíĻĶ":9388,"Ġìĸ´ì©Įë©´":9389,"ìŀ¬ë¯¸ëıĦìĹĨê³ł":9390,"ìĿ´íķĺëĵľ":9391,"Ġì¿¨":9392,"ê¼¬ë§Ī":9393,"Ġë©ĶìĦ¸ì§Ģë¥¼":9394,"ì¤ĦìķĮìķĺëĬĶëį°":9395,"íĹĪìłĳíķľ":9396,"ĠìĥĪë¡Ŀ":9397,"¬ëł¸":9398,"ìµľê·¼ìĹĲ":9399,"Ġê²īë©ĭ":9400,"ĠìĿµìĪĻ":9401,"ëıħë¦½ìĺģíĻĶ":9402,"ëŀľìĬ¤íı¬ë¨¸":9403,"_^":9404,"id":9405,"´£":9406,"ëĩ":9407,"Ġ!!!!":9408,"Ġì¾Į":9409,"ĠìĮĵ":9410,"ê°Īë":9411,"ëĭ¤ì½Ķ":9412,"ê³°":9413,"ëĬĶê²ĥëıĦ":9414,"ê³łìłĦ":9415,"Ġíī":9416,"ĠìĺģíĻĶëĵ¤ìĿ´":9417,"Ġë§Īë²ķ":9418,"ìķĦë¦¬":9419,"ìĿ¸íĦ°":9420,"ë³´ëł¤ê³ł":9421,"ìĬ¤íĭ´":9422,"ëĮĢì¶©":9423,"ĠìĹĨìĸ´ëıĦ":9424,"ì§Ħíķľ":9425,"ìŀĪìĿĦê¹Į":9426,"ìłĦëĭ¬":9427,"ĠìŀĪìĹĪìĬµëĭĪëĭ¤":9428,"ĠìĹ°ê´Ģ":9429,"Ġíķľê°Ģ":9430,"ì¹ĺë§Į":9431,"Ġìŀ¬ë°ĮìĹĪ":9432,"ĠëĬĳëĮĢ":9433,"Ġì£¼ìľ¤ë°ľ":9434,"Ġë§ĪëĭĪ":9435,"Ġëª»íķĺëĦ¤":9436,"ĠìĹ¬ìĭł":9437,"ĠìŀĲìķĦ":9438,"Ġê²ĥëĵ¤":9439,"Ġìĺ¤ì§Ģ":9440,"Ġê¹¡íĮ¨":9441,"ìŀ¬ë¯¸ìŀĪëĦ¤ìļĶ":9442,"ë²ĦíĬ¼":9443,"ëªħíĻĶ":9444,"ĠìķłìŀĶ":9445,"ĠìłĢì§Ģ":9446,"ĠíĹ¬":9447,"Ġê±°íĴĪ":9448,"ĠìĹŃìŀĳ":9449,"Ġëĭ¤ìĭľë³´ê¸°":9450,"ëŃĩ":9451,"Ġëª°ìķĦ":9452,"Ġê¸°ëĮĢê°Ģ":9453,"Ġê°ķìļĶ":9454,"ìĻľìĿ´ëłĩê²Į":9455,"ëĲĲëĭ¤":9456,"ĠíĺĦìĭ¤ìĿĢ":9457,"ìĥĿê°ģìľ¼ë¡ľ":9458,"Ġë¦°":9459,"ĠìĦłìłķ":9460,"Ġê³¼ìłķìĿ´":9461,"Ġë°©ê¸Ī":9462,"êµ¬ë¨¼":9463,"ĠìĿ¼ë³¸ìĿĺ":9464,"ëĬĶê±°ëĭ¤":9465,"Ġê¸´ë°ķ":9466,"Īë°ľ":9467,"ì£½ìĿ´ê³ł":9468,"ĠëĨĢëŀĺ":9469,"Ġì»¬":9470,"Ġì»·":9471,"Ġì»´íĵ¨íĦ°":9472,"Ġìŀħìŀ¥":9473,"Ġê³°":9474,"íķłìĪĺëıĦ":9475,"ĠëĤłìķĦ":9476,"ĠíĺķìĤ¬":9477,"ì¤ĺëıĦ":9478,"Ġì´Īëĵ±íķĻêµĲ":9479,"Ġìĭľë¦¬ì¦ĪìĿĺ":9480,"ë²łìĬ¤íĬ¸":9481,"ìĿ´ìķ¼ê¸°ê°Ģ":9482,"Ġë°°ê²½ìĿ´":9483,"Ġì£¼ê³łìĭ¶ëĭ¤":9484,"Ġì¶©ë¶Ħíķĺëĭ¤":9485,"Ġì»¤ìĦľ":9486,"ìĹ°ì¶ľìĿ´":9487,"ë»ĳ":9488,"ê½Ŀ":9489,"Ġìĵ¸ìĵ¸":9490,"ĠìŀĲìĹ°ìĬ¤ëŁ½ê²Į":9491,"íĭ°ë¹Ħë¡ľ":9492,"ëłĪëĶĶ":9493,"ĠìĺģíĻĶìĿ¸ê²ĥ":9494,"ìµľìķħìĿĺìĺģíĻĶ":9495,"Ġìĭ«ìĸ´íķĺëĬĶ":9496,"ìłĲì¤Ģê²ĥ":9497,"ì¶ľìĹ°ì§Ħ":9498,"Ġì©Ķìĸ´":9499,"Ġë¸ĶëŀĻì½Ķë¯¸ëĶĶ":9500,"Ġìĭľë¦¬ì¦Īë¥¼":9501,"ĠìĨĮìŀ¥íķĺê³ł":9502,"Ġë»¥":9503,"Ġì¯§":9504,"ĠíķĺìĿ´íĭ´":9505,"ëŀĺê³¤ë³¼":9506,"!?":9507,"ëĭ¤ìĨĮ":9508,"ëĤĦ":9509,"ĠìĺģíĻĶìĨį":9510,"ĠìĺģíĻĶëŀĢ":9511,"ìĭ¬ë¦¬":9512,"ìĿĺëıĦ":9513,"ìĿĢìĺģíĻĶ":9514,"ëĤĺìĺ¬ëķĮ":9515,"Ġë§Ļ":9516,"ìĸ´ìĿ´ê°Ģ":9517,"ë¡ľë´ĩ":9518,"ë¡ľë²ĦíĬ¸":9519,"ëłĢ":9520,"ëį°ëłĲ":9521,"íķ´ìĦĿ":9522,"íķ´ì¤Ģëĭ¤":9523,"ìĥĪë²½ìĹĲ":9524,"ìĺģíĻĶë³´ë©´ìĦľ":9525,"ìĬ¤íĮĮìĿ´":9526,"ëŀ¬ëĭ¤":9527,"ì¤į":9528,"ìłķì¹ĺ":9529,"Ġì¢ĭìķĹ":9530,"ìŀĪìĹĪëĬĶëį°":9531,"ìłĦìĿĢ":9532,"ìĥģëıĦ":9533,"ìĺ¤ìļ°":9534,"Ġìĺ¬ëĵľ":9535,"Ġë§Įìķ½":9536,"ìĦ±íķľ":9537,"ĠìĹ°ê¸°ë§Į":9538,"Ġëª¨ë°©":9539,"ĠìķĪê°ĢëĬĶ":9540,"Ġì£¼ìĦ¸ìļĶ":9541,"ĠëĵľëĶĶìĸ´":9542,"ĠìĿ¸ì¢ħ":9543,"Ġìµľê³łìĿ¸ëĵ¯":9544,"ìľłì¾Įíķľ":9545,"Ġë¹Ħíķ´ìĦľ":9546,"Ġë¹Ħì¥¬ìĸ¼":9547,"Ġë¯¸ì³Ĳ":9548,"ë²Ħì¸ł":9549,"Ġë§Įëĵ¤ìĹĪëĥĲ":9550,"ëĲĺìļĶ":9551,"ĠëģĿëĤ¨":9552,"ìĺģêµŃ":9553,"ë¦¬ëĵľ":9554,"ë¦¬ë·°":9555,"Ġìķłì´ĪìĹĲ":9556,"OOOO":9557,"ĠëĬĲëĤĢëĭ¤":9558,"ĠìŀĪëĬĶê°Ģ":9559,"ĠëĦĺì³Ĳ":9560,"Ġë©ĭìł¸ìļĶ":9561,"Ġê¸°ìĸµëĤľëĭ¤":9562,"Ġìŀ¥ë©´ë§Į":9563,"ĠíķľêµŃìĺģíĻĶìĿĺ":9564,"Ġê´ľì°®ìķĺëįĺ":9565,"Ġìĭ¬íķĺëĭ¤":9566,"ê¼Ī":9567,"ì§ĳì¤ĳ":9568,"ĠìļĶë¦¬":9569,"ĠìķĦìĿ´ëĶĶ":9570,"Ġë§Įëĵ¤ìĸ´ì£¼":9571,"Ġê³µíı¬ê°Ģ":9572,"íĿ¬ëĬĶ":9573,"Ġíİ¸ìĿ¸ëį°":9574,"ìķĦìĿ´ëĵ¤ê³¼":9575,"Ġê²ĮìĬ¤íĬ¸":9576,"ë´ĲëıĦë´ĲëıĦ":9577,"íĬ¹ìľłìĿĺ":9578,"ê¸°ëĮĢìĿ´ìĥģ":9579,"ëŁ¬ë¬¼":9580,"ĠëĬĲê»´ì§Ģì§Ģ":9581,"ì°½ìĭľìłĪ":9582,"ĠìłľëĮĢë¡ľëĲľ":9583,"ĠíĨµíķ´ìĦľ":9584,"ĠìĿĺë¯¸ëıĦ":9585,"ì¤ĺìķ¼ì§Ģ":9586,"ë²ķíķľ":9587,"ìĬ¬íĶĦê³ł":9588,"ì§Ŀíīģ":9589,"ì¶©ë¶ĦíŀĪ":9590,"Ġíŀĺëĵ¤ìĹĪëĭ¤":9591,"Ġì²¨ë¶ĢíĦ°":9592,"ëªħìŀĳìĿ´ëĭ¤":9593,"Ġìĸ´ë¦°ìĭľìłĪ":9594,"Ġì£ł":9595,"ìĺ¬ëł¤":9596,"ĠìĦ¤ìłķìĿĢ":9597,"Ġê°ĲëıĻìłģìĿ´ìĹĲìļĶ":9598,"ĠìĿ¸ë¬¼ëĵ¤ìĿĺ":9599,"ĠìĻłë§Įíķľ":9600,"ìķĦëĭĮëį°":9601,"ĠëĨĴìĿĢì§Ģ":9602,"ĠëįĶìļ±ëįĶ":9603,"ë¦¬ìĿĺë¦¬ìĿĺ":9604,"ĠìĹĲë¡ľìĺģíĻĶ":9605,"íĢĦ":9606,"ë²Īë´ĲëıĦ":9607,"Ġê¼¬ë§Ī":9608,"Ġê»Ĳëĭ¤":9609,"Ġë©´ìĿ´":9610,"Ġê¹ľëĨĢ":9611,"Ġëļľ":9612,"Ġì°¬ìĤ¬ë¥¼":9613,"Ġëºı":9614,"ĠìķĪë¬´ìĦŃ":9615,"ĠìĺĨìĹĲ":9616,"ì¼ĢìĿ´ë¸ĶìĹĲìĦľ":9617,"°ľê²¬":9618,"íıīë²Ķíķľ":9619,"ĠìĤ´ëĭ¤ìĤ´ëĭ¤":9620,"ìĦ¸íı¬ìĨĮëħĢ":9621,"ĠíĿ¬ëĮĢìĿĺ":9622,"ì§Ģë¶Ģì§Ģ":9623,"Ġíķ¸ëĵľ":9624,"âĺħâĺĨâĺħâĺĨ":9625,"el":9626,"ff":9627,"ĠH":9628,"ģëĭĪëĭ¤":9629,"ì§ĪëĿ¼":9630,"ëĵ¦":9631,"ë¦ħ":9632,"ĠìĺģíĻĶìłģ":9633,"ìĭ¹":9634,"ëĤĺë³´ëĭ¤":9635,"ĠìĿ´ìĸ´ì§ĢëĬĶ":9636,"...;;":9637,"Ġì§¤":9638,"ìĺģíĻĶë³´ëĬĶ":9639,"ìĺģíĻĶìĺĢëĭ¤":9640,"ë³´ìĨĮ":9641,"ìĬ¤íħĿ":9642,"ëŀ¨":9643,"ê±°ìĽĮ":9644,"ìĤĲ":9645,"ìŀĲëĵ¤ìĿĢ":9646,"ìŀĲìĭłìĿĺ":9647,"ìķ¼ìŀĲ":9648,"ì£¼ë§Ĳ":9649,"ìłģìĿĦ":9650,"Ġì§Ģìĺ¥":9651,"Ġíķľìĭľê°Ħ":9652,"ëĵľë¦½":9653,"ĠìĭľíĹĺ":9654,"Ġì°Ķ":9655,"ê²ĥìĿ¸ê°Ģ":9656,"ì¹ĺê¸°":9657,"Ġê¸°ì¡´":9658,"Ġëª¨ëıħ":9659,"ìĤ¬ê¸°":9660,"ìĤ¬ì§Ħ":9661,"Ġë¬´ìĿĺë¯¸":9662,"ëŁ¬ìĽĢ":9663,"ĠìķĪê²¨":9664,"ĠìķĪì¢ĭìĿĢ":9665,"Ġì¡±":9666,"Ġê°ľì½ĺ":9667,"Ġë³¸ì§Ģ":9668,"ìĺĢëĦ¤ìļĶ":9669,"Ġìĺ¤ë¡ľì§Ģ":9670,"ĠìĤ¬ê³¼":9671,"Ġì¤ĳìĿĺ":9672,"ìĺģìĿĢ":9673,"ëıĻìĿĦ":9674,"Ġíķ´ìļĶ":9675,"ì¡°íķľ":9676,"íĤµ":9677,"Ġìĭ¶ìĿĮ":9678,"ìķłê¸°":9679,"Ġì¢ĭìķĦíķĺìĭľëĬĶ":9680,"ìľĦë¥¼":9681,"¬ë¦½":9682,"ĠìĭłìĿ¸":9683,"ìĿ´ëŁ°ê±´":9684,"ìķĬê³ł":9685,"Ġëª¨ë¥´ê²Ł":9686,"ĠìķĦê¹ĿìĬµëĭĪëĭ¤":9687,"ĠíĬĢ":9688,"Ġë§Īì§Ģë§īìĿĢ":9689,"Ġì²ĺìĿĮìĹĲ":9690,"ĠìĿ´ìķ¼ê¸°ìĿĺ":9691,"ë¡łìĿĺ":9692,"íĺĢìĦľ":9693,"ĠìĦ¸ìĽĶ":9694,"ĠíıīìĨĮ":9695,"Ġë§Įëĵłê±´ì§Ģ":9696,"Ġë³Ħë¡ľìĺĢëĭ¤":9697,"ĠëĬĲëĤĮëıĦ":9698,"ì¹´ëį°ë¯¸":9699,"ìķĪë³¸":9700,"ì§Ģë£¨íķ´ìĦľ":9701,"ë©Ķë¦¬":9702,"ĠëĤ¨ìŀĲëĬĶ":9703,"Ġë»Ķíķĺëĭ¤":9704,"Ġëª¨ëĵłê²ĥìĿ´":9705,"ĠìĻ¸ë©´":9706,"ĠìĹ´ìłķ":9707,"ëıĪìľ¼ë¡ľ":9708,"ë¸Įë£¨ìĬ¤":9709,"Ġìŀ¬ë°ĭìĸ´ìļĶ":9710,"ĠìĤ´ìķĦìķ¼":9711,"ëĨĪìĿĺ":9712,"ë¶Ģë¶ĦìĿĢ":9713,"íĺľêµĲ":9714,"Ġìĸ´ìĿ´ìĹĨìĿĮ":9715,"Ġë¯¸êµŃìĿĺ":9716,"ê²ĥê°ĻìķĦ":9717,"ëĭĿë§¨":9718,"Ġì»¤ëħķ":9719,"Ġê°ĸê²Į":9720,"Ġê°ĸì¶ĺ":9721,"ĠìĹŃìĤ¬ìĹĲ":9722,"Ġìĺ¤ê¸Ģìĺ¤ê¸Ģ":9723,"Ġì¤ĺëıĦ":9724,"Ġ2000":9725,"Ġê·¸ëŁ´ëĵ¯":9726,"ì´ĪëĶ©ëķĮ":9727,"ĠìĨĮë¦Ħëģ¼ì¹ĺëĬĶ":9728,"ë§ĲìĿ´íķĦìļĶìĹĨëĭ¤":9729,"ìķĦìī½ëĭ¤":9730,"ìĦ¹ìĬ¤":9731,"Ġì¼ĢìĿ´ë¸ĶìĹĲìĦľ":9732,"Ġë¬´ìĸ¸ê°Ģ":9733,"ĠìķĪë´ĲìĦľ":9734,"ê¹ģëĭĪëĭ¤":9735,"cn":9736,"¥¸":9737,"ª»":9738,"Ħĺ":9739,"ìĿ´ë»Ĳ":9740,"ìłĪë":9741,"ì§ĢíĻĺ":9742,"íķľíħĲ":9743,"ëĤĺë¬´":9744,"ëĤĺìłĢëĤĺ":9745,"ê²ĮìĿ´":9746,"ê²Įëĭ¤ê°Ģ":9747,"ìĬ¬ë¦¬":9748,"ë¦¬ìī¬":9749,"ëłĺ":9750,"ìĿ¸ìľ¼ë¡ľ":9751,"ìĿ¸íĺľ":9752,"ìĺģíĻĶëĦ¤ìļĶ":9753,"ìĭľì¼°":9754,"ìĹĨìĬµëĭĪëĭ¤":9755,"ĠíķĺëĭĪ":9756,"ì§Ħíĺ¸":9757,"íĨ¡":9758,"íķłìĪľ":9759,"Ġë´¤ëĬĶì§Ģ":9760,"ê²ĥëĵ¤ìĿ´":9761,"ê²ĥì²ĺëŁ¼":9762,"ìłľë¥¼":9763,"Ġê¸°ìŀĲ":9764,"ĠìĹ°ê¸°ìŀĲëĵ¤":9765,"ëŀĺìļĶ":9766,"ìĭłíĺľ":9767,"ëŁ¬ëĭĪ":9768,"ëŁ¬íĭ°ë¸Į":9769,"ĠìķĪëĭ¤":9770,"ĠìķĪê°Ĳ":9771,"ĠìķĪëĤĺìĺ¤ëĬĶ":9772,"~~!":9773,"Ġë§Ĳìķĺëĭ¤":9774,"ëħĦìĿĦ":9775,"ĠìłľìĻķ":9776,"íĥĢìĿ´":9777,"Ġê²ĥê³¼":9778,"Ġìĺ¤íĶĦëĭĿ":9779,"ĠìĨĮíĴĪ":9780,"ìĭ¬ìĿĢ":9781,"Ġë§İëĦ¤":9782,"ìĽĲëıĦ":9783,"Ġê³µì¤ĳ":9784,"ìŀ¬ë°ĮìĹĪìĿĮ":9785,"ĠìĽĥê²¼ëĭ¤":9786,"ëĳĲê·¼":9787,"Ġê±°ìķ¼":9788,"ë°Ķëĭ¤":9789,"Ġë°ĶëŀĢëĭ¤":9790,"êµ°ìĿ´":9791,"!!!!!!!":9792,"Ġíı¼":9793,"íĮĲìľ¼ë¡ľ":9794,"Ġìµľê³łìĿĺìĺģíĻĶ":9795,"Ġì²ĺìĿĮìĿ´":9796,"ĠëªħìŀĳìĿĢ":9797,"Ġë¡ľë¹Ī":9798,"Ġë¡ľë²ĦíĬ¸":9799,"ìĻľìĿ´ë¦¬":9800,"íħĮë¦¬":9801,"ê²©ìĿ´":9802,"Ġë§īìĥģ":9803,"¬ëĿ¼ê¸°":9804,"ĠìĿĮëª¨":9805,"Ġêµ¬ì¡°":9806,"Ġë§ŀì¶Ķ":9807,"ì¼ĢíĮħ":9808,"ĠìķĦìĿ´ëĵ¤ìĿĺ":9809,"ĠìķĦìĿ´ëĵ¤ìĹĲê²Į":9810,"Ġëª°ìŀħíķĺê²Į":9811,"ì§ĢìķĬê²Į":9812,"ì§ĢìķĬìķĦ":9813,"ìĵ°ëłĪê¸°ëĭ¤":9814,"ĠëĪĦëĤĺ":9815,"ĠìĿ¸ìĥĿìĿĢ":9816,"Ġë°ĽìķĦìķ¼":9817,"Ġê·¹ìŀ¥ìĹĲ":9818,"ëĦĺì¹ĺëĬĶ":9819,"íĬ¹ë³Ħ":9820,"Ġë²Ħë¬´":9821,"ĠìĹĦì²ŃëĤĺê²Į":9822,"ĠìĹīëļ±":9823,"ĠìĨĲê¼½":9824,"ĠíĮĮê³ł":9825,"Ġë¬¼ìĸ´":9826,"Ġê°Ģì¡±ìĿĦ":9827,"Ġê°Ģì¡±ìķł":9828,"Ġë¶Ģì¡±íķĺê³ł":9829,"ĠìĤ¶ê³¼":9830,"Ġìŀ¬ë°ĭìĿĮ":9831,"ĠëĤĺë¦ĦëĮĢë¡ľ":9832,"Ġê´Ģê°ĿìĿ´":9833,"Ġì¶©ê²©ìłģìĿ´":9834,"ë¡Ńëĭ¤":9835,"Ġíģ´ë¦¬":9836,"ĠìºĲìĬ¤íĮħìĿ´":9837,"Ġë¹ĦêµĲíķĺë©´":9838,"Ġì±ĦìĽĮ":9839,"ĠìĪľìĪĺíķĺê³ł":9840,"ìĵ¸ëį°":9841,"ìŀĳê°Ģëĭĺ":9842,"Ġìıł":9843,"Ġë¹µìłĲ":9844,"Ġì´ĪëĶ©ëķĮ":9845,"Ġìī½ì§Ģ":9846,"Ġë°ĶëĿ¼ë³´ëĬĶ":9847,"ĠìĨĮë¦¬ë§Į":9848,"Ġê·¸ëŁ´ìĭ¸":9849,"íķĺê²łìĬµëĭĪëĭ¤":9850,"ĠíĻįì½©ìĺģíĻĶ":9851,"ë±Ģ":9852,"ëĭ¬ëĿ¼ê³ł":9853,"ìĹ¬ëŁ¬ë¶Ħ":9854,"ĠìĦ¸ëł¨ëĲľ":9855,"Ġìĺģíĸ¥ìĿĦ":9856,"ĠíħĲëį°":9857,"ëº":9858,"ìĿ´ëŁ´":9859,"ìķ¨":9860,"ìĿĺìĻ¸ë¡ľ":9861,"ë¡ľëĿ¼":9862,"ë§Įìķ½":9863,"ë¦¬ìĬ¨":9864,"ĠìłĪë°ĺ":9865,"ìķĦëĥĲ":9866,"ìĿ¸íķ´":9867,"ëį°ìļĶ":9868,"Ġì§Ļ":9869,"ĠëĭĪëĦ¤":9870,"ĠëĤĺìķĦ":9871,"Ġëĭ¤ë¦Ħ":9872,"ìłĦíŀĪ":9873,"Ġìłķì£¼íĸī":9874,"ĠìŀĪìĸ´ëıĦ":9875,"ìĺ¤ë²Ħ":9876,"Ġëĵ¬":9877,"Ġìĸ´ëĶĺ":9878,"Ġìĺ¬ë¦¬ë":9879,"Ġì§Ģê°Ģ":9880,"ê·¸ëŁ´":9881,"ì¡ĭ":9882,"Ġê°Ģê¹Ŀ":9883,"ìĦ±ê³µ":9884,"íŀĪíŀĪ":9885,"ìĸĢ":9886,"Ġê¸°ë²ķ":9887,"ìĿ¼ëķĮ":9888,"ĠìĹ°ê¸°íķľ":9889,"ĠìĹ°ê¸°ë¡ľ":9890,"êµ¬êµ¬":9891,"ĠìłĦëıĦ":9892,"êµŃëĤ´":9893,"ì¤ĳíķľ":9894,"ë¶ĦìłķëıĦ":9895,"ê²łê³ł":9896,"ëł¥ìĹĲ":9897,"ëħĦëıĻìķĪ":9898,"ìĺĢêµ¬ëĤĺ":9899,"ĠìĸĦ":9900,"ĠëĤ¨ê¸´":9901,"ĠìĿ´ëŁ°ìĭĿìľ¼ë¡ľ":9902,"ìĽĲìĿĦ":9903,"ìĪĢ":9904,"Ġë²ĦìłĦ":9905,"ĠëĵľëĿ¼ë§ĪëıĦ":9906,"ë¦¬ëł¤":9907,"ĠìĤ¬ëŀĳìĬ¤ëŁ½ê³ł":9908,"íĹī":9909,"ë°ĺëĭ´":9910,"¬ë¦´":9911,"ë°ľë¡ľ":9912,"ìĿ´ëŁ°ìĺģíĻĶëĬĶ":9913,"ĠìĿĺë¦¬":9914,"Ġì¶Ķê°Ģ":9915,"Ġê¸°ëĮĢíĸĪ":9916,"ĠìĦ±íĺķ":9917,"ë°°ìļ°ëĵ¤ëıĦ":9918,"ìĤ¬ëŀĮëıĦ":9919,"ĠìĹĲìĿ´":9920,"ĠëĲĲëĭ¤":9921,"íģ¬ê°Ģ":9922,"Ġë§¤ëł¥ìłģ":9923,"ì§ĢìķĬìĿĮ":9924,"ĠìķĪëĲĺëĦ¤":9925,"Ġìłģê·¹":9926,"ĠìĥĿì¡´":9927,"íĪŃ":9928,"ĠëĪĪìľ¼ë¡ľ":9929,"ĠìļķìĿĦ":9930,"Ġìŀ¬ìķĻ":9931,"ìłĲëıĦìķĦê¹Ŀëĭ¤":9932,"Ġì¹ĺë£Į":9933,"Ġê°Ħì§Ģ":9934,"ëģĿëĤ´":9935,"ĠìŀĲì²´ëıĦ":9936,"Ġìķħë§Ī":9937,"ĠëĤĺìĻĢëıĦ":9938,"ê²ģê²Į":9939,"ë¸Ķë£¨":9940,"ìĽĲìŀĳìĹĲ":9941,"ëŃĶì§Ģ":9942,"Ġìĸ´ìĿ´ìĹĨëĭ¤":9943,"ĠìĦ¸ìĥģìĹĲìĦľ":9944,"ì±ħìŀĦ":9945,"Ġì¶ĶìĸµìĿĦ":9946,"ìĭ¸ìĿ´ì½Ķ":9947,"ĠìĬ¤íĥĢëİĢ":9948,"ĠìķĶìļ¸":9949,"Ġëª°ìŀħëıĦëıĦ":9950,"ìĹĶëĶ©ìĿ´":9951,"íģ¬ë¥¼":9952,"ĠìĥģíĻ©ìĿ´":9953,"ìĭŃëĭĪëĭ¤":9954,"Ġëĵ£ëĬĶ":9955,"ëĤĺë¦ĦëĮĢë¡ľ":9956,"ë³¼ë§Įíķ¨":9957,"ĠìĹīë§Ŀì§Ħì°½":9958,"ĠëĨĪëĵ¤":9959,"ĠìĿ´ëĶ°ìľĦë¡ľ":9960,"ĠíĹĪìĪłíķľ":9961,"Ġìĥģì²ĺë¥¼":9962,"ìłĲì£¼ê¸°ëıĦ":9963,"íĿĶíķľ":9964,"BSìĹĲìĦľ":9965,"ĠíĿīëĤ´ëĤ´":9966,"ĠìĦ¬ìĦ¸íķľ":9967,"ĪĦëĿ¼":9968,"ĠëĵľëĿ¼ë§ĪëĿ¼ê³ł":9969,"ĠìĿĢê·¼íŀĪ":9970,"ĠìĹ½ê¸°":9971,"ê¹ľì§Ŀ":9972,"Ġìĸ´ìĦ¤íĶĦê²Į":9973,"ĠìķĪë´Ħ":9974,".(":9975,".?":9976,"na":9977,"ģìĹĲ":9978,"..;":9979,"ëĬĻ":9980,"ìķµ":9981,"ìķľ":9982,"ìļ¬":9983,"íķĺëįĶëĭĪ":9984,"ê¸°ì¢ħìĺģ":9985,"ìĿĦêº¼":9986,"ĠìĿ´ì§Ģ":9987,"ìĸ´ëł¤":9988,"ë¡ľìĿĺ":9989,"ë¦¬ì¦ĺ":9990,"ëĵ¤ë¦°":9991,"ìķĦì¤Įë§Ī":9992,"ìĿ¸ëĵ¤ìĿĢ":9993,"ìĺģíĻĶì¤ĳìĹĲ":9994,"ë³´ìĿ¸ëĭ¤":9995,"ìŀĲìľł":9996,"ìĹĪìĿĦíħĲëį°":9997,"Ġíķĺìłķìļ°":9998,"ìķ¼ê²łëĭ¤":9999}